{
  "version": "1.0",
  "truncation": null,
  "padding": null,
  "added_tokens": [
    {
      "id": 0,
      "content": "[UNK]",
      "single_word": false,
      "lstrip": false,
      "rstrip": false,
      "normalized": false,
      "special": true
    },
    {
      "id": 1,
      "content": "[PAD]",
      "single_word": false,
      "lstrip": false,
      "rstrip": false,
      "normalized": false,
      "special": true
    },
    {
      "id": 2,
      "content": "[CLS]",
      "single_word": false,
      "lstrip": false,
      "rstrip": false,
      "normalized": false,
      "special": true
    }
  ],
  "normalizer": {
    "type": "Sequence",
    "normalizers": [
      {
        "type": "NFD"
      },
      {
        "type": "Lowercase"
      },
      {
        "type": "StripAccents"
      }
    ]
  },
  "pre_tokenizer": {
    "type": "Sequence",
    "pretokenizers": [
      {
        "type": "WhitespaceSplit"
      },
      {
        "type": "Punctuation",
        "behavior": "Isolated"
      }
    ]
  },
  "post_processor": {
    "type": "TemplateProcessing",
    "single": [
      {
        "SpecialToken": {
          "id": "[CLS]",
          "type_id": 0
        }
      },
      {
        "Sequence": {
          "id": "A",
          "type_id": 0
        }
      }
    ],
    "pair": [
      {
        "Sequence": {
          "id": "A",
          "type_id": 0
        }
      },
      {
        "Sequence": {
          "id": "B",
          "type_id": 1
        }
      }
    ],
    "special_tokens": {
      "[CLS]": {
        "id": "[CLS]",
        "ids": [
          2
        ],
        "tokens": [
          "[CLS]"
        ]
      }
    }
  },
  "decoder": null,
  "model": {
    "type": "WordPiece",
    "unk_token": "[UNK]",
    "continuing_subword_prefix": "##",
    "max_input_chars_per_word": 100,
    "vocab": {
      "[UNK]": 0,
      "[PAD]": 1,
      "[CLS]": 2,
      "!": 3,
      "\"": 4,
      "&": 5,
      "'": 6,
      "(": 7,
      ")": 8,
      ",": 9,
      "-": 10,
      ".": 11,
      "0": 12,
      "1": 13,
      "2": 14,
      "3": 15,
      "4": 16,
      "5": 17,
      "6": 18,
      "7": 19,
      "8": 20,
      "9": 21,
      ":": 22,
      ";": 23,
      "?": 24,
      "a": 25,
      "b": 26,
      "c": 27,
      "d": 28,
      "e": 29,
      "f": 30,
      "g": 31,
      "h": 32,
      "i": 33,
      "j": 34,
      "k": 35,
      "l": 36,
      "m": 37,
      "n": 38,
      "o": 39,
      "p": 40,
      "q": 41,
      "r": 42,
      "s": 43,
      "t": 44,
      "u": 45,
      "v": 46,
      "w": 47,
      "x": 48,
      "y": 49,
      "z": 50,
      "##a": 51,
      "##n": 52,
      "##s": 53,
      "##d": 54,
      "##o": 55,
      "##w": 56,
      "##e": 57,
      "##l": 58,
      "##c": 59,
      "##p": 60,
      "##y": 61,
      "##u": 62,
      "##k": 63,
      "##r": 64,
      "##i": 65,
      "##g": 66,
      "##v": 67,
      "##t": 68,
      "##b": 69,
      "##m": 70,
      "##h": 71,
      "##j": 72,
      "##x": 73,
      "##1": 74,
      "##4": 75,
      "##f": 76,
      "##3": 77,
      "##2": 78,
      "##0": 79,
      "##z": 80,
      "##5": 81,
      "##7": 82,
      "##6": 83,
      "##q": 84,
      "##8": 85,
      "##9": 86,
      "th": 87,
      "##er": 88,
      "##in": 89,
      "the": 90,
      "##on": 91,
      "##or": 92,
      "##es": 93,
      "##en": 94,
      "##at": 95,
      "to": 96,
      "##an": 97,
      "##ing": 98,
      "##ed": 99,
      "##is": 100,
      "##ou": 101,
      "##nd": 102,
      "##it": 103,
      "##ar": 104,
      "##ic": 105,
      "##al": 106,
      "in": 107,
      "##ion": 108,
      "and": 109,
      "##om": 110,
      "##re": 111,
      "##il": 112,
      "of": 113,
      "##as": 114,
      "##ur": 115,
      "##ent": 116,
      "re": 117,
      "##le": 118,
      "for": 119,
      "##st": 120,
      "##ct": 121,
      "pr": 122,
      "##ay": 123,
      "##ve": 124,
      "##id": 125,
      "##ation": 126,
      "##ol": 127,
      "##ot": 128,
      "##et": 129,
      "st": 130,
      "is": 131,
      "##se": 132,
      "on": 133,
      "##ig": 134,
      "we": 135,
      "com": 136,
      "##ow": 137,
      "##ac": 138,
      "##ill": 139,
      "##th": 140,
      "##ess": 141,
      "our": 142,
      "##ver": 143,
      "##em": 144,
      "wh": 145,
      "##el": 146,
      "##ad": 147,
      "##ir": 148,
      "##ut": 149,
      "con": 150,
      "be": 151,
      "##am": 152,
      "##ers": 153,
      "this": 154,
      "##ly": 155,
      "##oc": 156,
      "am": 157,
      "##pp": 158,
      "that": 159,
      "you": 160,
      "ne": 161,
      "##ce": 162,
      "##ies": 163,
      "##us": 164,
      "it": 165,
      "##ith": 166,
      "##op": 167,
      "##igh": 168,
      "##est": 169,
      "##ate": 170,
      "##im": 171,
      "with": 172,
      "al": 173,
      "##ist": 174,
      "##un": 175,
      "##ort": 176,
      "an": 177,
      "##ans": 178,
      "##ity": 179,
      "ha": 180,
      "##ch": 181,
      "are": 182,
      "de": 183,
      "##eric": 184,
      "##ul": 185,
      "wor": 186,
      "ch": 187,
      "americ": 188,
      "go": 189,
      "su": 190,
      "as": 191,
      "en": 192,
      "##and": 193,
      "##ak": 194,
      "##ear": 195,
      "##ag": 196,
      "at": 197,
      "##ight": 198,
      "se": 199,
      "##day": 200,
      "fr": 201,
      "##os": 202,
      "##ment": 203,
      "##ust": 204,
      "li": 205,
      "##ore": 206,
      "##od": 207,
      "##ter": 208,
      "will": 209,
      "tr": 210,
      "comm": 211,
      "##gr": 212,
      "sh": 213,
      "rep": 214,
      "##ain": 215,
      "le": 216,
      "##ld": 217,
      "##end": 218,
      "##tr": 219,
      "##ab": 220,
      "my": 221,
      "their": 222,
      "ab": 223,
      "have": 224,
      "##ere": 225,
      "cou": 226,
      "im": 227,
      "##ant": 228,
      "work": 229,
      "##art": 230,
      "hou": 231,
      "he": 232,
      "##ost": 233,
      "##ice": 234,
      "##ect": 235,
      "pro": 236,
      "ex": 237,
      "was": 238,
      "jo": 239,
      "act": 240,
      "from": 241,
      "all": 242,
      "more": 243,
      "##ure": 244,
      "##iden": 245,
      "ad": 246,
      "##ip": 247,
      "##all": 248,
      "##ive": 249,
      "##ff": 250,
      "cr": 251,
      "un": 252,
      "ac": 253,
      "##ud": 254,
      "##ial": 255,
      "by": 256,
      "today": 257,
      "##ack": 258,
      "biden": 259,
      "than": 260,
      "sp": 261,
      "house": 262,
      "##ew": 263,
      "can": 264,
      "inf": 265,
      "or": 266,
      "they": 267,
      "##ord": 268,
      "##ard": 269,
      "##out": 270,
      "ag": 271,
      "##um": 272,
      "##iv": 273,
      "##ap": 274,
      "who": 275,
      "res": 276,
      "##ue": 277,
      "##ions": 278,
      "##ass": 279,
      "##reat": 280,
      "##are": 281,
      "commun": 282,
      "pe": 283,
      "not": 284,
      "##lation": 285,
      "dem": 286,
      "us": 287,
      "nation": 288,
      "me": 289,
      "##ast": 290,
      "do": 291,
      "##erv": 292,
      "coun": 293,
      "##ep": 294,
      "year": 295,
      "##ub": 296,
      "new": 297,
      "##act": 298,
      "congr": 299,
      "sa": 300,
      "##gh": 301,
      "##ould": 302,
      "has": 303,
      "##iz": 304,
      "dis": 305,
      "##alth": 306,
      "##pport": 307,
      "fam": 308,
      "##lic": 309,
      "##ocr": 310,
      "rec": 311,
      "gr": 312,
      "pol": 313,
      "famil": 314,
      "##ake": 315,
      "##ople": 316,
      "hel": 317,
      "##uc": 318,
      "##ib": 319,
      "##very": 320,
      "##uct": 321,
      "##if": 322,
      "american": 323,
      "people": 324,
      "imp": 325,
      "br": 326,
      "up": 327,
      "##aw": 328,
      "pres": 329,
      "##con": 330,
      "##20": 331,
      "need": 332,
      "##ary": 333,
      "about": 334,
      "bill": 335,
      "inc": 336,
      "##ber": 337,
      "##ome": 338,
      "##ov": 339,
      "democr": 340,
      "off": 341,
      "##ks": 342,
      "##one": 343,
      "##ime": 344,
      "gov": 345,
      "##ents": 346,
      "##ia": 347,
      "congress": 348,
      "help": 349,
      "##ities": 350,
      "##ge": 351,
      "health": 352,
      "##able": 353,
      "cl": 354,
      "##ence": 355,
      "right": 356,
      "##ke": 357,
      "sec": 358,
      "##ical": 359,
      "so": 360,
      "every": 361,
      "##ublic": 362,
      "serv": 363,
      "support": 364,
      "##ild": 365,
      "out": 366,
      "over": 367,
      "cont": 368,
      "##age": 369,
      "your": 370,
      "prot": 371,
      "ar": 372,
      "day": 373,
      "pl": 374,
      "##ough": 375,
      "##erg": 376,
      "##her": 377,
      "##ong": 378,
      "##ose": 379,
      "str": 380,
      "##ews": 381,
      "exp": 382,
      "americans": 383,
      "acc": 384,
      "just": 385,
      "##ous": 386,
      "its": 387,
      "his": 388,
      "##ie": 389,
      "##00": 390,
      "##uss": 391,
      "##ats": 392,
      "##fe": 393,
      "##oss": 394,
      "vot": 395,
      "protect": 396,
      "##min": 397,
      "join": 398,
      "##ices": 399,
      "but": 400,
      "##istr": 401,
      "te": 402,
      "must": 403,
      "contin": 404,
      "##ire": 405,
      "man": 406,
      "##ations": 407,
      "##ian": 408,
      "comp": 409,
      "pass": 410,
      "inflation": 411,
      "##our": 412,
      "##ide": 413,
      "##ual": 414,
      "##hing": 415,
      "##ine": 416,
      "##ident": 417,
      "##news": 418,
      "##ek": 419,
      "app": 420,
      "countr": 421,
      "##und": 422,
      "families": 423,
      "##ens": 424,
      "law": 425,
      "great": 426,
      "get": 427,
      "how": 428,
      "##lo": 429,
      "##ors": 430,
      "##ich": 431,
      "##br": 432,
      "dr": 433,
      "##eral": 434,
      "now": 435,
      "##ergy": 436,
      "time": 437,
      "##ace": 438,
      "no": 439,
      "lo": 440,
      "president": 441,
      "##ax": 442,
      "part": 443,
      "what": 444,
      "inv": 445,
      "##for": 446,
      "##conom": 447,
      "##ues": 448,
      "country": 449,
      "energy": 450,
      "##ower": 451,
      "##oud": 452,
      "##ok": 453,
      "##ail": 454,
      "col": 455,
      "##ase": 456,
      "lead": 457,
      "##ec": 458,
      "care": 459,
      "if": 460,
      "leg": 461,
      "one": 462,
      "sen": 463,
      "##nt": 464,
      "econom": 465,
      "wom": 466,
      "##ther": 467,
      "##ful": 468,
      "high": 469,
      "##ance": 470,
      "fre": 471,
      "##order": 472,
      "proud": 473,
      "##ign": 474,
      "mar": 475,
      "##enc": 476,
      "ind": 477,
      "hon": 478,
      "here": 479,
      "these": 480,
      "thank": 481,
      "national": 482,
      "community": 483,
      "##pt": 484,
      "her": 485,
      "make": 486,
      "##ates": 487,
      "##ated": 488,
      "##ict": 489,
      "##ound": 490,
      "ev": 491,
      "##ves": 492,
      "ke": 493,
      "should": 494,
      "##au": 495,
      "cost": 496,
      "20": 497,
      "##ory": 498,
      "pre": 499,
      "##ress": 500,
      "int": 501,
      "honor": 502,
      "them": 503,
      "border": 504,
      "bl": 505,
      "week": 506,
      "##bs": 507,
      "##own": 508,
      "stud": 509,
      "fund": 510,
      "##iness": 511,
      "fed": 512,
      "fight": 513,
      "happ": 514,
      "##ro": 515,
      "##ult": 516,
      "em": 517,
      "disc": 518,
      "years": 519,
      "would": 520,
      "admin": 521,
      "again": 522,
      "been": 523,
      "tax": 524,
      "sch": 525,
      "democrats": 526,
      "##lect": 527,
      "fir": 528,
      "##iver": 529,
      "##ional": 530,
      "##uring": 531,
      "like": 532,
      "af": 533,
      "communities": 534,
      "##usiness": 535,
      "##isis": 536,
      "hear": 537,
      "dec": 538,
      "back": 539,
      "mon": 540,
      "##ning": 541,
      "##ind": 542,
      "federal": 543,
      "prov": 544,
      "##arm": 545,
      "mill": 546,
      "republic": 547,
      "##202": 548,
      "america": 549,
      "soc": 550,
      "##ile": 551,
      "##ool": 552,
      "##eter": 553,
      "des": 554,
      "##get": 555,
      "##vern": 556,
      "##ays": 557,
      "##qu": 558,
      "##ug": 559,
      "##ons": 560,
      "mem": 561,
      "##ism": 562,
      "##ade": 563,
      "continue": 564,
      "state": 565,
      "end": 566,
      "##ach": 567,
      "kn": 568,
      "##ting": 569,
      "those": 570,
      "##og": 571,
      "##uction": 572,
      "##ward": 573,
      "working": 574,
      "att": 575,
      "##ite": 576,
      "##med": 577,
      "put": 578,
      "govern": 579,
      "last": 580,
      "first": 581,
      "ens": 582,
      "thr": 583,
      "##ish": 584,
      "op": 585,
      "##wn": 586,
      "##ments": 587,
      "inter": 588,
      "polic": 589,
      "vi": 590,
      "##aking": 591,
      "ce": 592,
      "let": 593,
      "fo": 594,
      "keep": 595,
      "##av": 596,
      "reg": 597,
      "rem": 598,
      "crisis": 599,
      "see": 600,
      "pay": 601,
      "were": 602,
      "und": 603,
      "cap": 604,
      "##ty": 605,
      "co": 606,
      "##ll": 607,
      "when": 608,
      "##te": 609,
      "##ell": 610,
      "bec": 611,
      "which": 612,
      "progr": 613,
      "women": 614,
      "invest": 615,
      "legis": 616,
      "acr": 617,
      "ro": 618,
      "##air": 619,
      "red": 620,
      "secur": 621,
      "##ement": 622,
      "##old": 623,
      "##acy": 624,
      "discuss": 625,
      "commit": 626,
      "school": 627,
      "across": 628,
      "call": 629,
      "sc": 630,
      "wat": 631,
      "pot": 632,
      "##ating": 633,
      "child": 634,
      "any": 635,
      "administr": 636,
      "business": 637,
      "add": 638,
      "##hip": 639,
      "##itical": 640,
      "hist": 641,
      "def": 642,
      "bu": 643,
      "##lebr": 644,
      "##ame": 645,
      "##ics": 646,
      "celebr": 647,
      "many": 648,
      "cent": 649,
      "##oll": 650,
      "##ces": 651,
      "med": 652,
      "world": 653,
      "##ited": 654,
      "##erve": 655,
      "veter": 656,
      "##ible": 657,
      "why": 658,
      "service": 659,
      "##kr": 660,
      "under": 661,
      "##king": 662,
      "access": 663,
      "fl": 664,
      "bet": 665,
      "there": 666,
      "don": 667,
      "ass": 668,
      "into": 669,
      "##ump": 670,
      "##ton": 671,
      "##ely": 672,
      "social": 673,
      "##ital": 674,
      "##vel": 675,
      "##ts": 676,
      "contr": 677,
      "colle": 678,
      "loc": 679,
      "##iss": 680,
      "##ending": 681,
      "import": 682,
      "lives": 683,
      "eff": 684,
      "##bt": 685,
      "know": 686,
      "vis": 687,
      "##krain": 688,
      "costs": 689,
      "government": 690,
      "##bers": 691,
      "prices": 692,
      "##red": 693,
      "##ause": 694,
      "want": 695,
      "##isan": 696,
      "resp": 697,
      "security": 698,
      "rel": 699,
      "read": 700,
      "legislation": 701,
      "rights": 702,
      "viol": 703,
      "aff": 704,
      "##ang": 705,
      "life": 706,
      "incl": 707,
      "against": 708,
      "happy": 709,
      "ukrain": 710,
      "may": 711,
      "##ene": 712,
      "gas": 713,
      "##ount": 714,
      "prod": 715,
      "##ility": 716,
      "war": 717,
      "family": 718,
      "some": 719,
      "par": 720,
      "##der": 721,
      "elect": 722,
      "cle": 723,
      "safe": 724,
      "administration": 725,
      "cour": 726,
      "ann": 727,
      "##its": 728,
      "through": 729,
      "ed": 730,
      "##ft": 731,
      "##rem": 732,
      "##ps": 733,
      "##ings": 734,
      "19": 735,
      "potus": 736,
      "good": 737,
      "office": 738,
      "per": 739,
      "veterans": 740,
      "stand": 741,
      "sm": 742,
      "economy": 743,
      "news": 744,
      "month": 745,
      "##astr": 746,
      "##ition": 747,
      "##ath": 748,
      "##imate": 749,
      "public": 750,
      "##edom": 751,
      "##stit": 752,
      "adv": 753,
      "ensure": 754,
      "program": 755,
      "after": 756,
      "##ry": 757,
      "000": 758,
      "##ise": 759,
      "had": 760,
      "bo": 761,
      "jobs": 762,
      "only": 763,
      "includ": 764,
      "leaders": 765,
      "freedom": 766,
      "other": 767,
      "lower": 768,
      "republicans": 769,
      "bip": 770,
      "lear": 771,
      "stop": 772,
      "repr": 773,
      "tw": 774,
      "##artisan": 775,
      "fin": 776,
      "while": 777,
      "plan": 778,
      "##less": 779,
      "cons": 780,
      "##anc": 781,
      "##orm": 782,
      "gun": 783,
      "real": 784,
      "bipartisan": 785,
      "##ving": 786,
      "million": 787,
      "take": 788,
      "own": 789,
      "spe": 790,
      "##ize": 791,
      "home": 792,
      "sou": 793,
      "##eng": 794,
      "funding": 795,
      "trans": 796,
      "russ": 797,
      "most": 798,
      "del": 799,
      "org": 800,
      "##ock": 801,
      "##amp": 802,
      "bel": 803,
      "hard": 804,
      "##ri": 805,
      "##ative": 806,
      "##ah": 807,
      "##we": 808,
      "ple": 809,
      "policies": 810,
      "sign": 811,
      "incre": 812,
      "mil": 813,
      "local": 814,
      "##man": 815,
      "ful": 816,
      "fut": 817,
      "states": 818,
      "meet": 819,
      "iss": 820,
      "el": 821,
      "qu": 822,
      "##so": 823,
      "##olut": 824,
      "colleag": 825,
      "##ands": 826,
      "##vent": 827,
      "thanks": 828,
      "##ject": 829,
      "202": 830,
      "saf": 831,
      "important": 832,
      "being": 833,
      "because": 834,
      "##ency": 835,
      "offic": 836,
      "washing": 837,
      "ins": 838,
      "##ovid": 839,
      "##ief": 840,
      "gen": 841,
      "ter": 842,
      "##ety": 843,
      "future": 844,
      "##ave": 845,
      "down": 846,
      "##ern": 847,
      "##les": 848,
      "##orr": 849,
      "##orn": 850,
      "ir": 851,
      "never": 852,
      "##ember": 853,
      "big": 854,
      "##urn": 855,
      "way": 856,
      "sin": 857,
      "passed": 858,
      "trump": 859,
      "long": 860,
      "##de": 861,
      "covid": 862,
      "##ren": 863,
      "##ortion": 864,
      "##ways": 865,
      "students": 866,
      "workers": 867,
      "even": 868,
      "during": 869,
      "made": 870,
      "##itics": 871,
      "learn": 872,
      "sy": 873,
      "vote": 874,
      "##orts": 875,
      "##ental": 876,
      "##ric": 877,
      "also": 878,
      "violence": 879,
      "look": 880,
      "##uch": 881,
      "car": 882,
      "##ists": 883,
      "climate": 884,
      "ukraine": 885,
      "##form": 886,
      "members": 887,
      "##leg": 888,
      "washington": 889,
      "##aff": 890,
      "##ink": 891,
      "distr": 892,
      "##ious": 893,
      "##xt": 894,
      "##ased": 895,
      "##ucture": 896,
      "##pr": 897,
      "##ivers": 898,
      "ly": 899,
      "tal": 900,
      "visit": 901,
      "es": 902,
      "infr": 903,
      "##cr": 904,
      "ear": 905,
      "##ange": 906,
      "colleagues": 907,
      "##ources": 908,
      "better": 909,
      "##ior": 910,
      "##astructure": 911,
      "build": 912,
      "##ond": 913,
      "##other": 914,
      "dep": 915,
      "joined": 916,
      "##imes": 917,
      "voted": 918,
      "farm": 919,
      "since": 920,
      "fri": 921,
      "form": 922,
      "##he": 923,
      "##20220": 924,
      "afford": 925,
      "abortion": 926,
      "address": 927,
      "rest": 928,
      "free": 929,
      "small": 930,
      "power": 931,
      "milit": 932,
      "##acc": 933,
      "ca": 934,
      "infrastructure": 935,
      "congressional": 936,
      "children": 937,
      "friend": 938,
      "critical": 939,
      "economic": 940,
      "##com": 941,
      "ext": 942,
      "always": 943,
      "spending": 944,
      "ban": 945,
      "open": 946,
      "hous": 947,
      "fox": 948,
      "rece": 949,
      "gu": 950,
      "##ope": 951,
      "mo": 952,
      "does": 953,
      "military": 954,
      "county": 955,
      "drug": 956,
      "sub": 957,
      "fac": 958,
      "##ted": 959,
      "##ants": 960,
      "bene": 961,
      "##sel": 962,
      "govmed": 963,
      "##ery": 964,
      "provide": 965,
      "constit": 966,
      "student": 967,
      "##pportun": 968,
      "supp": 969,
      "opportun": 970,
      "center": 971,
      "benef": 972,
      "intr": 973,
      "di": 974,
      "fe": 975,
      "##cc": 976,
      "bidens": 977,
      "##ick": 978,
      "left": 979,
      "full": 980,
      "well": 981,
      "##ians": 982,
      "##igr": 983,
      "history": 984,
      "celebrate": 985,
      "##ork": 986,
      "##io": 987,
      "account": 988,
      "educ": 989,
      "won": 990,
      "hum": 991,
      "sur": 992,
      "stat": 993,
      "impact": 994,
      "businesses": 995,
      "mor": 996,
      "bit": 997,
      "democracy": 998,
      "##uth": 999,
      "##ines": 1000,
      "comnews": 1001,
      "##ific": 1002,
      "##ally": 1003,
      "bre": 1004,
      "could": 1005,
      "##over": 1006,
      "il": 1007,
      "attack": 1008,
      "ris": 1009,
      "introd": 1010,
      "resources": 1011,
      "cre": 1012,
      "pers": 1013,
      "forward": 1014,
      "##oth": 1015,
      "strong": 1016,
      "prevent": 1017,
      "start": 1018,
      "still": 1019,
      "##reme": 1020,
      "where": 1021,
      "min": 1022,
      "lat": 1023,
      "senate": 1024,
      "ma": 1025,
      "##ester": 1026,
      "district": 1027,
      "bring": 1028,
      "ph": 1029,
      "##ert": 1030,
      "##als": 1031,
      "##land": 1032,
      "sup": 1033,
      "live": 1034,
      "##pl": 1035,
      "aw": 1036,
      "much": 1037,
      "##ying": 1038,
      "action": 1039,
      "##son": 1040,
      "##stem": 1041,
      "##jo": 1042,
      "##ently": 1043,
      "ref": 1044,
      "watch": 1045,
      "val": 1046,
      "step": 1047,
      "ret": 1048,
      "everyone": 1049,
      "##az": 1050,
      "ve": 1051,
      "court": 1052,
      "next": 1053,
      "##imin": 1054,
      "decis": 1055,
      "##oun": 1056,
      "##ling": 1057,
      "##owing": 1058,
      "vacc": 1059,
      "##ina": 1060,
      "project": 1061,
      "united": 1062,
      "##ural": 1063,
      "emp": 1064,
      "##une": 1065,
      "team": 1066,
      "win": 1067,
      "needs": 1068,
      "##read": 1069,
      "##ra": 1070,
      "medic": 1071,
      "come": 1072,
      "making": 1073,
      "##vi": 1074,
      "fighting": 1075,
      "she": 1076,
      "##emic": 1077,
      "##ogn": 1078,
      "human": 1079,
      "##ense": 1080,
      "justice": 1081,
      "did": 1082,
      "##ecial": 1083,
      "##olitics": 1084,
      "capital": 1085,
      "ny": 1086,
      "record": 1087,
      "##uel": 1088,
      "miss": 1089,
      "system": 1090,
      "creat": 1091,
      "another": 1092,
      "provid": 1093,
      "##ced": 1094,
      "ra": 1095,
      "conf": 1096,
      "threat": 1097,
      "##oved": 1098,
      "##uality": 1099,
      "##loy": 1100,
      "##ience": 1101,
      "12": 1102,
      "mental": 1103,
      "10": 1104,
      "including": 1105,
      "mark": 1106,
      "##mit": 1107,
      "class": 1108,
      "water": 1109,
      "histor": 1110,
      "##ids": 1111,
      "##ied": 1112,
      "fail": 1113,
      "two": 1114,
      "##any": 1115,
      "recogn": 1116,
      "##thern": 1117,
      "going": 1118,
      "##ives": 1119,
      "cor": 1120,
      "##ength": 1121,
      "food": 1122,
      "mat": 1123,
      "oil": 1124,
      "change": 1125,
      "secure": 1126,
      "##gether": 1127,
      "##ulations": 1128,
      "##ree": 1129,
      "##fore": 1130,
      "##ier": 1131,
      "la": 1132,
      "##irect": 1133,
      "thats": 1134,
      "joe": 1135,
      "##ness": 1136,
      "prom": 1137,
      "ant": 1138,
      "##uce": 1139,
      "##gin": 1140,
      "##ood": 1141,
      "strength": 1142,
      "ago": 1143,
      "##ets": 1144,
      "lab": 1145,
      "imm": 1146,
      "##esterday": 1147,
      "##ys": 1148,
      "together": 1149,
      "yesterday": 1150,
      "nor": 1151,
      "debt": 1152,
      "prop": 1153,
      "##par": 1154,
      "sac": 1155,
      "terr": 1156,
      "safety": 1157,
      "wr": 1158,
      "lost": 1159,
      "pray": 1160,
      "person": 1161,
      "too": 1162,
      "illeg": 1163,
      "liber": 1164,
      "find": 1165,
      "black": 1166,
      "##tt": 1167,
      "##ought": 1168,
      "##ars": 1169,
      "remember": 1170,
      "##ures": 1171,
      "com20220": 1172,
      "direct": 1173,
      "enfor": 1174,
      "gre": 1175,
      "pa": 1176,
      "pat": 1177,
      "##ffer": 1178,
      "inst": 1179,
      "##osp": 1180,
      "use": 1181,
      "democrat": 1182,
      "##ble": 1183,
      "clean": 1184,
      "white": 1185,
      "##epend": 1186,
      "say": 1187,
      "expand": 1188,
      "maj": 1189,
      "##arly": 1190,
      "##dem": 1191,
      "ur": 1192,
      "##2022": 1193,
      "##oin": 1194,
      "introduc": 1195,
      "education": 1196,
      "deserve": 1197,
      "best": 1198,
      "him": 1199,
      "please": 1200,
      "ly3": 1201,
      "intern": 1202,
      "##ik": 1203,
      "issues": 1204,
      "dom": 1205,
      "##cement": 1206,
      "##enn": 1207,
      "political": 1208,
      "southern": 1209,
      "show": 1210,
      "speak": 1211,
      "independ": 1212,
      "hur": 1213,
      "##ash": 1214,
      "putin": 1215,
      "services": 1216,
      "control": 1217,
      "##uck": 1218,
      "##oney": 1219,
      "allow": 1220,
      "##sw": 1221,
      "##aster": 1222,
      "billion": 1223,
      "##11": 1224,
      "##ening": 1225,
      "##eness": 1226,
      "police": 1227,
      "inform": 1228,
      "hold": 1229,
      "##rove": 1230,
      "create": 1231,
      "requ": 1232,
      "##line": 1233,
      "repres": 1234,
      "men": 1235,
      "##akes": 1236,
      "party": 1237,
      "relief": 1238,
      "before": 1239,
      "major": 1240,
      "##care": 1241,
      "congrat": 1242,
      "deliver": 1243,
      "around": 1244,
      "##tee": 1245,
      "russia": 1246,
      "cur": 1247,
      "comb": 1248,
      "assist": 1249,
      "prior": 1250,
      "sure": 1251,
      "##ages": 1252,
      "millions": 1253,
      "fire": 1254,
      "##iving": 1255,
      "gener": 1256,
      "face": 1257,
      "ever": 1258,
      "morning": 1259,
      "exc": 1260,
      "commitment": 1261,
      "sacr": 1262,
      "supply": 1263,
      "ill": 1264,
      "##arg": 1265,
      "##cept": 1266,
      "av": 1267,
      "##ather": 1268,
      "tex": 1269,
      "indust": 1270,
      "##ized": 1271,
      "##velop": 1272,
      "leadership": 1273,
      "##ix": 1274,
      "##not": 1275,
      "efforts": 1276,
      "##port": 1277,
      "increase": 1278,
      "air": 1279,
      "hearing": 1280,
      "think": 1281,
      "##ner": 1282,
      "host": 1283,
      "gl": 1284,
      "historic": 1285,
      "nat": 1286,
      "proc": 1287,
      "paying": 1288,
      "improve": 1289,
      "fore": 1290,
      "dont": 1291,
      "quest": 1292,
      "##ng": 1293,
      "##olog": 1294,
      "production": 1295,
      "bir": 1296,
      "develop": 1297,
      "save": 1298,
      "cut": 1299,
      "##ateful": 1300,
      "without": 1301,
      "exper": 1302,
      "jan": 1303,
      "policy": 1304,
      "canc": 1305,
      "mid": 1306,
      "republican": 1307,
      "flo": 1308,
      "##eck": 1309,
      "answ": 1310,
      "htt": 1311,
      "immigr": 1312,
      "##olution": 1313,
      "prof": 1314,
      "##anger": 1315,
      "opportunity": 1316,
      "##ential": 1317,
      "beh": 1318,
      "represent": 1319,
      "##urs": 1320,
      "##thing": 1321,
      "money": 1322,
      "eq": 1323,
      "very": 1324,
      "congratulations": 1325,
      "tech": 1326,
      "give": 1327,
      "illegal": 1328,
      "mass": 1329,
      "##bo": 1330,
      "city": 1331,
      "fair": 1332,
      "##ately": 1333,
      "announ": 1334,
      "benefits": 1335,
      "met": 1336,
      "hope": 1337,
      "##hn": 1338,
      "##ieve": 1339,
      "price": 1340,
      "voting": 1341,
      "##tion": 1342,
      "official": 1343,
      "remain": 1344,
      "affordable": 1345,
      "##ational": 1346,
      "https": 1347,
      "town": 1348,
      "reduction": 1349,
      "est": 1350,
      "same": 1351,
      "2022": 1352,
      "##osed": 1353,
      "inn": 1354,
      "interest": 1355,
      "##ley": 1356,
      "introduced": 1357,
      "conc": 1358,
      "enforcement": 1359,
      "##uf": 1360,
      "sk": 1361,
      "##ugg": 1362,
      "vict": 1363,
      "far": 1364,
      "information": 1365,
      "cho": 1366,
      "##uctive": 1367,
      "rad": 1368,
      "rele": 1369,
      "grateful": 1370,
      "birth": 1371,
      "report": 1372,
      "##ution": 1373,
      "##por": 1374,
      "##ms": 1375,
      "priv": 1376,
      "##wor": 1377,
      "##itol": 1378,
      "doll": 1379,
      "##illed": 1380,
      "##itiz": 1381,
      "labor": 1382,
      "list": 1383,
      "##ocu": 1384,
      "statement": 1385,
      "job": 1386,
      "grow": 1387,
      "honored": 1388,
      "##10": 1389,
      "staff": 1390,
      "##idents": 1391,
      "##ases": 1392,
      "supreme": 1393,
      "short": 1394,
      "letter": 1395,
      "##led": 1396,
      "clear": 1397,
      "##wh": 1398,
      "foxnews": 1399,
      "serve": 1400,
      "##ead": 1401,
      "##ability": 1402,
      "cannot": 1403,
      "china": 1404,
      "talk": 1405,
      "ent": 1406,
      "hom": 1407,
      "done": 1408,
      "capitol": 1409,
      "##ey": 1410,
      "north": 1411,
      "appr": 1412,
      "##artic": 1413,
      "##gop": 1414,
      "##enda": 1415,
      "advoc": 1416,
      "less": 1417,
      "pand": 1418,
      "##uary": 1419,
      "15": 1420,
      "found": 1421,
      "##ott": 1422,
      "##ufact": 1423,
      "##ession": 1424,
      "art": 1425,
      "nations": 1426,
      "place": 1427,
      "organ": 1428,
      "##ipp": 1429,
      "young": 1430,
      "san": 1431,
      "cal": 1432,
      "wel": 1433,
      "govnews": 1434,
      "##vers": 1435,
      "##mi": 1436,
      "compet": 1437,
      "continu": 1438,
      "22": 1439,
      "vir": 1440,
      "##ush": 1441,
      "farmers": 1442,
      "medicare": 1443,
      "chall": 1444,
      "##estic": 1445,
      "30": 1446,
      "foll": 1447,
      "hero": 1448,
      "manufact": 1449,
      "receive": 1450,
      "decision": 1451,
      "##oke": 1452,
      "##ging": 1453,
      "##til": 1454,
      "post": 1455,
      "##ient": 1456,
      "##bc": 1457,
      "sacrif": 1458,
      "west": 1459,
      "healthcare": 1460,
      "pandemic": 1461,
      "##str": 1462,
      "doing": 1463,
      "auth": 1464,
      "##used": 1465,
      "move": 1466,
      "defend": 1467,
      "##ane": 1468,
      "##orrow": 1469,
      "##iors": 1470,
      "kids": 1471,
      "agenda": 1472,
      "past": 1473,
      "domestic": 1474,
      "##ret": 1475,
      "deal": 1476,
      "below": 1477,
      "##of": 1478,
      "south": 1479,
      "##ark": 1480,
      "wis": 1481,
      "##ened": 1482,
      "emerg": 1483,
      "terror": 1484,
      "govmedi": 1485,
      "sl": 1486,
      "both": 1487,
      "##ator": 1488,
      "##ically": 1489,
      "##pay": 1490,
      "##lob": 1491,
      "ded": 1492,
      "tom": 1493,
      "cond": 1494,
      "afgh": 1495,
      "har": 1496,
      "crime": 1497,
      "committee": 1498,
      "num": 1499,
      "wa": 1500,
      "able": 1501,
      "##uly": 1502,
      "getting": 1503,
      "##use": 1504,
      "##ph": 1505,
      "yet": 1506,
      "seniors": 1507,
      "##apress": 1508,
      "dead": 1509,
      "upd": 1510,
      "texas": 1511,
      "sim": 1512,
      "friends": 1513,
      "mom": 1514,
      "compolitics": 1515,
      "##ades": 1516,
      "11": 1517,
      "yout": 1518,
      "heart": 1519,
      "##mon": 1520,
      "##ason": 1521,
      "continues": 1522,
      "##ims": 1523,
      "such": 1524,
      "housing": 1525,
      "##ready": 1526,
      "employ": 1527,
      "flor": 1528,
      "election": 1529,
      "test": 1530,
      "peace": 1531,
      "danger": 1532,
      "treat": 1533,
      "dev": 1534,
      "accountable": 1535,
      "govmediapress": 1536,
      "##let": 1537,
      "meeting": 1538,
      "already": 1539,
      "tune": 1540,
      "loved": 1541,
      "##ization": 1542,
      "process": 1543,
      "##da": 1544,
      "##mer": 1545,
      "##joy": 1546,
      "having": 1547,
      "citiz": 1548,
      "strugg": 1549,
      "hall": 1550,
      "##ibut": 1551,
      "taking": 1552,
      "13": 1553,
      "ide": 1554,
      "enc": 1555,
      "top": 1556,
      "##ops": 1557,
      "dedic": 1558,
      "share": 1559,
      "said": 1560,
      "fact": 1561,
      "##earch": 1562,
      "programs": 1563,
      "though": 1564,
      "curr": 1565,
      "##ned": 1566,
      "weap": 1567,
      "author": 1568,
      "##cy": 1569,
      "nearly": 1570,
      "industry": 1571,
      "mand": 1572,
      "##ral": 1573,
      "then": 1574,
      "remin": 1575,
      "anti": 1576,
      "ll": 1577,
      "result": 1578,
      "##ually": 1579,
      "##ween": 1580,
      "afghan": 1581,
      "##ico": 1582,
      "between": 1583,
      "florid": 1584,
      "##verage": 1585,
      "taxes": 1586,
      "40": 1587,
      "glob": 1588,
      "night": 1589,
      "##vir": 1590,
      "##aged": 1591,
      "##ale": 1592,
      "##ister": 1593,
      "enough": 1594,
      "cant": 1595,
      "##ream": 1596,
      "opp": 1597,
      "##iel": 1598,
      "poss": 1599,
      "ton": 1600,
      "##stand": 1601,
      "check": 1602,
      "laws": 1603,
      "proble": 1604,
      "tra": 1605,
      "parents": 1606,
      "constitu": 1607,
      "##post": 1608,
      "head": 1609,
      "##ences": 1610,
      "instead": 1611,
      "low": 1612,
      "##up": 1613,
      "##sec": 1614,
      "schools": 1615,
      "protecting": 1616,
      "assistance": 1617,
      "##reg": 1618,
      "##ault": 1619,
      "loan": 1620,
      "sw": 1621,
      "coming": 1622,
      "##ike": 1623,
      "progress": 1624,
      "##ips": 1625,
      "respond": 1626,
      "##ivid": 1627,
      "bills": 1628,
      "defense": 1629,
      "ser": 1630,
      "dc": 1631,
      "##icult": 1632,
      "death": 1633,
      "##reduction": 1634,
      "independence": 1635,
      "##ocuments": 1636,
      "##bl": 1637,
      "inflationreduction": 1638,
      "lg": 1639,
      "dollars": 1640,
      "sol": 1641,
      "mean": 1642,
      "incred": 1643,
      "det": 1644,
      "fuel": 1645,
      "civ": 1646,
      "ones": 1647,
      "union": 1648,
      "effect": 1649,
      "equ": 1650,
      "##anyl": 1651,
      "##entanyl": 1652,
      "amend": 1653,
      "id": 1654,
      "sit": 1655,
      "order": 1656,
      "brave": 1657,
      "reprod": 1658,
      "##iate": 1659,
      "land": 1660,
      "##atch": 1661,
      "chain": 1662,
      "50": 1663,
      "play": 1664,
      "green": 1665,
      "bar": 1666,
      "got": 1667,
      "wal": 1668,
      "sho": 1669,
      "fall": 1670,
      "investment": 1671,
      "##osi": 1672,
      "##aining": 1673,
      "inflationreductionact": 1674,
      "signed": 1675,
      "russian": 1676,
      "irs": 1677,
      "succ": 1678,
      "envir": 1679,
      "glad": 1680,
      "enjoy": 1681,
      "gop": 1682,
      "##ds": 1683,
      "mod": 1684,
      "##ators": 1685,
      "demand": 1686,
      "##izing": 1687,
      "fentanyl": 1688,
      "led": 1689,
      "##tle": 1690,
      "days": 1691,
      "partic": 1692,
      "until": 1693,
      "##self": 1694,
      "##iting": 1695,
      "depart": 1696,
      "success": 1697,
      "##ai": 1698,
      "##ved": 1699,
      "run": 1700,
      "##ule": 1701,
      "taxpay": 1702,
      "award": 1703,
      "##overy": 1704,
      "force": 1705,
      "esp": 1706,
      "##rec": 1707,
      "##oint": 1708,
      "##yr": 1709,
      "##ask": 1710,
      "stay": 1711,
      "##dle": 1712,
      "used": 1713,
      "took": 1714,
      "reproductive": 1715,
      "##istan": 1716,
      "##areness": 1717,
      "##iforn": 1718,
      "##nect": 1719,
      "americas": 1720,
      "means": 1721,
      "tour": 1722,
      "##ering": 1723,
      "committed": 1724,
      "##onment": 1725,
      "##force": 1726,
      "corpor": 1727,
      "bud": 1728,
      "reduce": 1729,
      "##hou": 1730,
      "##go": 1731,
      "arm": 1732,
      "january": 1733,
      "due": 1734,
      "thous": 1735,
      "govmedia": 1736,
      "citizens": 1737,
      "toward": 1738,
      "chair": 1739,
      "##ino": 1740,
      "ep": 1741,
      "vo": 1742,
      "##to": 1743,
      "apply": 1744,
      "##arian": 1745,
      "away": 1746,
      "##view": 1747,
      "financ": 1748,
      "issue": 1749,
      "level": 1750,
      "##opp": 1751,
      "vaccine": 1752,
      "reform": 1753,
      "grou": 1754,
      "##empt": 1755,
      "tonight": 1756,
      "##sh": 1757,
      "rev": 1758,
      "main": 1759,
      "grant": 1760,
      "##ify": 1761,
      "nothing": 1762,
      "member": 1763,
      "birthday": 1764,
      "##gu": 1765,
      "love": 1766,
      "secret": 1767,
      "##rs": 1768,
      "acad": 1769,
      "everything": 1770,
      "emergency": 1771,
      "ste": 1772,
      "event": 1773,
      "foreign": 1774,
      "crimin": 1775,
      "bless": 1776,
      "risk": 1777,
      "100": 1778,
      "democratic": 1779,
      "supporting": 1780,
      "celebrating": 1781,
      "##gn": 1782,
      "living": 1783,
      "##ocrats": 1784,
      "set": 1785,
      "18": 1786,
      "special": 1787,
      "##ote": 1788,
      "helped": 1789,
      "recovery": 1790,
      "##crip": 1791,
      "avail": 1792,
      "##ald": 1793,
      "##be": 1794,
      "compan": 1795,
      "feel": 1796,
      "dangerous": 1797,
      "each": 1798,
      "calling": 1799,
      "middle": 1800,
      "officers": 1801,
      "environment": 1802,
      "joining": 1803,
      "thousands": 1804,
      "individ": 1805,
      "californ": 1806,
      "strengthen": 1807,
      "lgbt": 1808,
      "comartic": 1809,
      "respons": 1810,
      "market": 1811,
      "needed": 1812,
      "##ecially": 1813,
      "recognize": 1814,
      "shoot": 1815,
      "innov": 1816,
      "sum": 1817,
      "passing": 1818,
      "##onsor": 1819,
      "leading": 1820,
      "individual": 1821,
      "sacrifice": 1822,
      "##pm": 1823,
      "along": 1824,
      "##iversary": 1825,
      "##hold": 1826,
      "failed": 1827,
      "##ners": 1828,
      "cn": 1829,
      "radical": 1830,
      "civil": 1831,
      "bas": 1832,
      "##oving": 1833,
      "lets": 1834,
      "research": 1835,
      "sent": 1836,
      "deep": 1837,
      "techn": 1838,
      "hun": 1839,
      "common": 1840,
      "press": 1841,
      "anniversary": 1842,
      "##iday": 1843,
      "differ": 1844,
      "wild": 1845,
      "concern": 1846,
      "ww": 1847,
      "##yp": 1848,
      "companies": 1849,
      "##ias": 1850,
      "##asing": 1851,
      "womens": 1852,
      "jud": 1853,
      "##iation": 1854,
      "##come": 1855,
      "centerp": 1856,
      "few": 1857,
      "##app": 1858,
      "##olutions": 1859,
      "fem": 1860,
      "amendment": 1861,
      "rul": 1862,
      "financial": 1863,
      "va": 1864,
      "line": 1865,
      "jack": 1866,
      "pur": 1867,
      "##edem": 1868,
      "john": 1869,
      "months": 1870,
      "available": 1871,
      "tomorrow": 1872,
      "foc": 1873,
      "served": 1874,
      "mich": 1875,
      "manufacturing": 1876,
      "##ris": 1877,
      "hand": 1878,
      "wonder": 1879,
      "##ins": 1880,
      "eng": 1881,
      "lgbtq": 1882,
      "fol": 1883,
      "afghanistan": 1884,
      "rac": 1885,
      "##hs": 1886,
      "especially": 1887,
      "budget": 1888,
      "##ann": 1889,
      "former": 1890,
      "##inc": 1891,
      "##times": 1892,
      "##thers": 1893,
      "leader": 1894,
      "##uge": 1895,
      "finally": 1896,
      "desp": 1897,
      "prescrip": 1898,
      "##auc": 1899,
      "forg": 1900,
      "assault": 1901,
      "global": 1902,
      "##iety": 1903,
      "##pol": 1904,
      "recently": 1905,
      "##gov": 1906,
      "forget": 1907,
      "char": 1908,
      "##alf": 1909,
      "##itic": 1910,
      "housedem": 1911,
      "oh": 1912,
      "24": 1913,
      "higher": 1914,
      "larg": 1915,
      "##documents": 1916,
      "##the": 1917,
      "investig": 1918,
      "camp": 1919,
      "chang": 1920,
      "cla": 1921,
      "combat": 1922,
      "fur": 1923,
      "2021": 1924,
      "once": 1925,
      "##ank": 1926,
      "immed": 1927,
      "projects": 1928,
      "called": 1929,
      "insp": 1930,
      "govnewsdocuments": 1931,
      "##ula": 1932,
      "shar": 1933,
      "development": 1934,
      "##americ": 1935,
      "neg": 1936,
      "produc": 1937,
      "ge": 1938,
      "others": 1939,
      "connect": 1940,
      "quality": 1941,
      "##atives": 1942,
      "##pan": 1943,
      "##ocket": 1944,
      "solutions": 1945,
      "som": 1946,
      "helping": 1947,
      "housedemocrats": 1948,
      "questions": 1949,
      "workforce": 1950,
      "facing": 1951,
      "thoughts": 1952,
      "academ": 1953,
      "ask": 1954,
      "##inion": 1955,
      "looking": 1956,
      "created": 1957,
      "funds": 1958,
      "##la": 1959,
      "folks": 1960,
      "count": 1961,
      "turn": 1962,
      "sense": 1963,
      "ho": 1964,
      "begin": 1965,
      "##house": 1966,
      "wishing": 1967,
      "old": 1968,
      "##ove": 1969,
      "hol": 1970,
      "lif": 1971,
      "##selves": 1972,
      "ess": 1973,
      "##ont": 1974,
      "##cue": 1975,
      "challeng": 1976,
      "bad": 1977,
      "##res": 1978,
      "possible": 1979,
      "constituents": 1980,
      "##ories": 1981,
      "investments": 1982,
      "##cond": 1983,
      "region": 1984,
      "god": 1985,
      "held": 1986,
      "##ship": 1987,
      "hurric": 1988,
      "##ology": 1989,
      "ob": 1990,
      "##augh": 1991,
      "simp": 1992,
      "lit": 1993,
      "iran": 1994,
      "things": 1995,
      "recent": 1996,
      "reck": 1997,
      "dest": 1998,
      "##19": 1999,
      "##ected": 2000,
      "ut": 2001,
      "residents": 2002,
      "key": 2003,
      "raise": 2004,
      "##lement": 2005,
      "break": 2006,
      "entire": 2007,
      "sing": 2008,
      "tar": 2009,
      "sex": 2010,
      "florida": 2011,
      "bur": 2012,
      "##ield": 2013,
      "##light": 2014,
      "##ateg": 2015,
      "travel": 2016,
      "incredible": 2017,
      "makes": 2018,
      "##itter": 2019,
      "rising": 2020,
      "##ten": 2021,
      "prescription": 2022,
      "pos": 2023,
      "stre": 2024,
      "equality": 2025,
      "oper": 2026,
      "##ilities": 2027,
      "ensuring": 2028,
      "respon": 2029,
      "further": 2030,
      "encour": 2031,
      "rural": 2032,
      "attempt": 2033,
      "spend": 2034,
      "believe": 2035,
      "##ls": 2036,
      "wrong": 2037,
      "weapons": 2038,
      "##ger": 2039,
      "##unch": 2040,
      "##aut": 2041,
      "applic": 2042,
      "decades": 2043,
      "##dems": 2044,
      "##utional": 2045,
      "##ibility": 2046,
      "devast": 2047,
      "sel": 2048,
      "##uses": 2049,
      "roe": 2050,
      "trying": 2051,
      "##month": 2052,
      "disaster": 2053,
      "return": 2054,
      "reckless": 2055,
      "ive": 2056,
      "rule": 2057,
      "officials": 2058,
      "vital": 2059,
      "##50": 2060,
      "bro": 2061,
      "capitalism": 2062,
      "consum": 2063,
      "socialist": 2064,
      "soon": 2065,
      "##elosi": 2066,
      "science": 2067,
      "##bi": 2068,
      "23": 2069,
      "ways": 2070,
      "##ired": 2071,
      "serving": 2072,
      "role": 2073,
      "##ech": 2074,
      "latest": 2075,
      "##emon": 2076,
      "twitter": 2077,
      "response": 2078,
      "##ots": 2079,
      "##ises": 2080,
      "##ified": 2081,
      "protection": 2082,
      "answer": 2083,
      "department": 2084,
      "fix": 2085,
      "dems": 2086,
      "speaker": 2087,
      "contribut": 2088,
      "##asure": 2089,
      "second": 2090,
      "200": 2091,
      "sept": 2092,
      "secretary": 2093,
      "central": 2094,
      "##ges": 2095,
      "essential": 2096,
      "##ee": 2097,
      "##ille": 2098,
      "nec": 2099,
      "close": 2100,
      "##ury": 2101,
      "##otus": 2102,
      "formula": 2103,
      "tell": 2104,
      "##ction": 2105,
      "fil": 2106,
      "sal": 2107,
      "general": 2108,
      "behind": 2109,
      "extreme": 2110,
      "sad": 2111,
      "non": 2112,
      "##ighb": 2113,
      "cred": 2114,
      "based": 2115,
      "opportunities": 2116,
      "thing": 2117,
      "apprec": 2118,
      "throughout": 2119,
      "send": 2120,
      "##itional": 2121,
      "times": 2122,
      "particip": 2123,
      "conserv": 2124,
      "reminder": 2125,
      "bab": 2126,
      "##ients": 2127,
      "surv": 2128,
      "hurricane": 2129,
      "neighb": 2130,
      "##loc": 2131,
      "##health": 2132,
      "##working": 2133,
      "##els": 2134,
      "repm": 2135,
      "worse": 2136,
      "##ived": 2137,
      "drugs": 2138,
      "mag": 2139,
      "##ata": 2140,
      "stopp": 2141,
      "legal": 2142,
      "building": 2143,
      "##ider": 2144,
      "push": 2145,
      "anyone": 2146,
      "really": 2147,
      "problem": 2148,
      "##itions": 2149,
      "wealth": 2150,
      "##encies": 2151,
      "safer": 2152,
      "welcome": 2153,
      "necess": 2154,
      "tit": 2155,
      "##co": 2156,
      "strateg": 2157,
      "hardworking": 2158,
      "paid": 2159,
      "weekend": 2160,
      "number": 2161,
      "insur": 2162,
      "21": 2163,
      "14": 2164,
      "##wide": 2165,
      "##ourn": 2166,
      "road": 2167,
      "agr": 2168,
      "##ube": 2169,
      "countries": 2170,
      "partners": 2171,
      "society": 2172,
      "self": 2173,
      "worked": 2174,
      "transport": 2175,
      "##business": 2176,
      "todays": 2177,
      "harm": 2178,
      "que": 2179,
      "##ams": 2180,
      "truth": 2181,
      "income": 2182,
      "icy": 2183,
      "flood": 2184,
      "nav": 2185,
      "reach": 2186,
      "legisl": 2187,
      "college": 2188,
      "fell": 2189,
      "woman": 2190,
      "sever": 2191,
      "someone": 2192,
      "icymi": 2193,
      "tool": 2194,
      "##side": 2195,
      "wish": 2196,
      "##work": 2197,
      "##ised": 2198,
      "hosting": 2199,
      "somet": 2200,
      "pack": 2201,
      "##way": 2202,
      "four": 2203,
      "repl": 2204,
      "boost": 2205,
      "media": 2206,
      "suffer": 2207,
      "geor": 2208,
      "den": 2209,
      "prayers": 2210,
      "##cal": 2211,
      "ap": 2212,
      "##ison": 2213,
      "teach": 2214,
      "highest": 2215,
      "eas": 2216,
      "become": 2217,
      "effort": 2218,
      "##dr": 2219,
      "##lish": 2220,
      "##ests": 2221,
      "matter": 2222,
      "california": 2223,
      "ren": 2224,
      "isra": 2225,
      "majority": 2226,
      "cult": 2227,
      "annual": 2228,
      "generations": 2229,
      "kill": 2230,
      "serious": 2231,
      "##upt": 2232,
      "housegop": 2233,
      "medical": 2234,
      "floor": 2235,
      "##ushing": 2236,
      "univers": 2237,
      "oct": 2238,
      "owners": 2239,
      "challenges": 2240,
      "target": 2241,
      "allies": 2242,
      "##ama": 2243,
      "cross": 2244,
      "dou": 2245,
      "##ters": 2246,
      "##ured": 2247,
      "virgin": 2248,
      "los": 2249,
      "##ising": 2250,
      "##iven": 2251,
      "poll": 2252,
      "##ination": 2253,
      "##ended": 2254,
      "heroes": 2255,
      "attacks": 2256,
      "prevention": 2257,
      "##politics": 2258,
      "##ody": 2259,
      "activ": 2260,
      "struggling": 2261,
      "##asion": 2262,
      "single": 2263,
      "loss": 2264,
      "tx": 2265,
      "ach": 2266,
      "##iff": 2267,
      "##aily": 2268,
      "international": 2269,
      "cancel": 2270,
      "##ensive": 2271,
      "understand": 2272,
      "##af": 2273,
      "york": 2274,
      "##cil": 2275,
      "##bre": 2276,
      "##aken": 2277,
      "largest": 2278,
      "hit": 2279,
      "true": 2280,
      "victims": 2281,
      "##orial": 2282,
      "immigration": 2283,
      "lim": 2284,
      "moment": 2285,
      "politics": 2286,
      "##aries": 2287,
      "follow": 2288,
      "speech": 2289,
      "growth": 2290,
      "##america": 2291,
      "providing": 2292,
      "putting": 2293,
      "park": 2294,
      "present": 2295,
      "##hood": 2296,
      "chips": 2297,
      "##ily": 2298,
      "##ville": 2299,
      "horr": 2300,
      "mur": 2301,
      "##lin": 2302,
      "##ici": 2303,
      "experi": 2304,
      "rich": 2305,
      "##oks": 2306,
      "##lif": 2307,
      "##bb": 2308,
      "average": 2309,
      "##ma": 2310,
      "expl": 2311,
      "natural": 2312,
      "##ler": 2313,
      "trill": 2314,
      "seeing": 2315,
      "listen": 2316,
      "israel": 2317,
      "##head": 2318,
      "awareness": 2319,
      "##02": 2320,
      "valley": 2321,
      "data": 2322,
      "update": 2323,
      "##nes": 2324,
      "##cm": 2325,
      "mis": 2326,
      "comple": 2327,
      "september": 2328,
      "##eline": 2329,
      "lot": 2330,
      "discussed": 2331,
      "examp": 2332,
      "heard": 2333,
      "electric": 2334,
      "##uty": 2335,
      "##ode": 2336,
      "##ards": 2337,
      "extrem": 2338,
      "agricult": 2339,
      "##itive": 2340,
      "says": 2341,
      "##dc": 2342,
      "##fully": 2343,
      "responders": 2344,
      "case": 2345,
      "pop": 2346,
      "##rep": 2347,
      "##oring": 2348,
      "seek": 2349,
      "cancer": 2350,
      "##izon": 2351,
      "ws": 2352,
      "importance": 2353,
      "elections": 2354,
      "overt": 2355,
      "aid": 2356,
      "dam": 2357,
      "##ees": 2358,
      "current": 2359,
      "hispan": 2360,
      "www": 2361,
      "nom": 2362,
      "##press": 2363,
      "dream": 2364,
      "##88": 2365,
      "17": 2366,
      "champ": 2367,
      "seen": 2368,
      "regul": 2369,
      "ready": 2370,
      "reb": 2371,
      "hours": 2372,
      "unf": 2373,
      "po": 2374,
      "##ute": 2375,
      "pump": 2376,
      "scotus": 2377,
      "youtube": 2378,
      "flag": 2379,
      "pleased": 2380,
      "##ention": 2381,
      "ukrainian": 2382,
      "tele": 2383,
      "##wom": 2384,
      "register": 2385,
      "suic": 2386,
      "2020": 2387,
      "decisions": 2388,
      "##erves": 2389,
      "eur": 2390,
      "##ission": 2391,
      "creating": 2392,
      "##just": 2393,
      "ground": 2394,
      "agents": 2395,
      "agency": 2396,
      "courage": 2397,
      "amaz": 2398,
      "personal": 2399,
      "criminal": 2400,
      "##ires": 2401,
      "exec": 2402,
      "groc": 2403,
      "##uation": 2404,
      "##17": 2405,
      "veteran": 2406,
      "broad": 2407,
      "path": 2408,
      "invasion": 2409,
      "group": 2410,
      "innovation": 2411,
      "##ana": 2412,
      "convers": 2413,
      "block": 2414,
      "##book": 2415,
      "july": 2416,
      "spoke": 2417,
      "coast": 2418,
      "subst": 2419,
      "##hic": 2420,
      "abs": 2421,
      "using": 2422,
      "overd": 2423,
      "##ails": 2424,
      "healthy": 2425,
      "hate": 2426,
      "##arch": 2427,
      "legacy": 2428,
      "clos": 2429,
      "enjoyed": 2430,
      "fellow": 2431,
      "comw": 2432,
      "##eks": 2433,
      "generation": 2434,
      "competition": 2435,
      "actions": 2436,
      "pm": 2437,
      "##ober": 2438,
      "fought": 2439,
      "migr": 2440,
      "point": 2441,
      "killed": 2442,
      "##emp": 2443,
      "title": 2444,
      "regard": 2445,
      "discussion": 2446,
      "wont": 2447,
      "dedicated": 2448,
      "##itarian": 2449,
      "private": 2450,
      "respect": 2451,
      "##xic": 2452,
      "actually": 2453,
      "wonderful": 2454,
      "pu": 2455,
      "##ights": 2456,
      "question": 2457,
      "weeks": 2458,
      "board": 2459,
      "early": 2460,
      "##ills": 2461,
      "chance": 2462,
      "training": 2463,
      "communist": 2464,
      "servic": 2465,
      "rate": 2466,
      "##lear": 2467,
      "##sequ": 2468,
      "##ained": 2469,
      "visited": 2470,
      "washingtonpost": 2471,
      "something": 2472,
      "resil": 2473,
      "##coming": 2474,
      "michig": 2475,
      "hispanic": 2476,
      "story": 2477,
      "unle": 2478,
      "##ape": 2479,
      "deter": 2480,
      "##pet": 2481,
      "##inated": 2482,
      "mob": 2483,
      "continued": 2484,
      "keeping": 2485,
      "##ne": 2486,
      "teachers": 2487,
      "et": 2488,
      "gall": 2489,
      "trag": 2490,
      "answers": 2491,
      "comes": 2492,
      "recession": 2493,
      "brid": 2494,
      "##sight": 2495,
      "##anch": 2496,
      "taken": 2497,
      "continuing": 2498,
      "cosp": 2499,
      "increasing": 2500,
      "following": 2501,
      "##aid": 2502,
      "chr": 2503,
      "doct": 2504,
      "additional": 2505,
      "sanct": 2506,
      "signific": 2507,
      "star": 2508,
      "socialism": 2509,
      "reason": 2510,
      "##crisis": 2511,
      "arizon": 2512,
      "##riage": 2513,
      "immigrants": 2514,
      "##den": 2515,
      "mess": 2516,
      "color": 2517,
      "benefit": 2518,
      "track": 2519,
      "memorial": 2520,
      "came": 2521,
      "port": 2522,
      "16": 2523,
      "ul": 2524,
      "##ames": 2525,
      "space": 2526,
      "constitution": 2527,
      "october": 2528,
      "##iately": 2529,
      "##enge": 2530,
      "youth": 2531,
      "##idence": 2532,
      "themselves": 2533,
      "europe": 2534,
      "pain": 2535,
      "nytimes": 2536,
      "army": 2537,
      "immediately": 2538,
      "##local": 2539,
      "example": 2540,
      "instit": 2541,
      "beaut": 2542,
      "excited": 2543,
      "individuals": 2544,
      "three": 2545,
      "25": 2546,
      "cy": 2547,
      "##iti": 2548,
      "urging": 2549,
      "fbi": 2550,
      "proper": 2551,
      "##back": 2552,
      "forced": 2553,
      "weve": 2554,
      "seem": 2555,
      "congressman": 2556,
      "cause": 2557,
      "trade": 2558,
      "advanc": 2559,
      "##ada": 2560,
      "accountability": 2561,
      "later": 2562,
      "cert": 2563,
      "freedoms": 2564,
      "surviv": 2565,
      "term": 2566,
      "earned": 2567,
      "servicem": 2568,
      "forces": 2569,
      "repd": 2570,
      "##week": 2571,
      "announced": 2572,
      "##ender": 2573,
      "govs": 2574,
      "pet": 2575,
      "##23": 2576,
      "##inking": 2577,
      "##embers": 2578,
      "movement": 2579,
      "highlight": 2580,
      "##issions": 2581,
      "pact": 2582,
      "##gest": 2583,
      "##iring": 2584,
      "##overpolitics": 2585,
      "ther": 2586,
      "product": 2587,
      "restore": 2588,
      "opt": 2589,
      "mayor": 2590,
      "##erence": 2591,
      "##18": 2592,
      "##ban": 2593,
      "includes": 2594,
      "release": 2595,
      "##fr": 2596,
      "##oming": 2597,
      "summer": 2598,
      "academy": 2599,
      "ign": 2600,
      "nationwide": 2601,
      "che": 2602,
      "praying": 2603,
      "treatment": 2604,
      "isnt": 2605,
      "comst": 2606,
      "consequ": 2607,
      "##iana": 2608,
      "elig": 2609,
      "aug": 2610,
      "traff": 2611,
      "trillion": 2612,
      "reality": 2613,
      "significant": 2614,
      "##sc": 2615,
      "execut": 2616,
      "corporations": 2617,
      "vol": 2618,
      "##yl": 2619,
      "equal": 2620,
      "cosponsor": 2621,
      "area": 2622,
      "peopleoverpolitics": 2623,
      "foxbusiness": 2624,
      "facility": 2625,
      "##others": 2626,
      "tro": 2627,
      "ohio": 2628,
      "nuc": 2629,
      "enter": 2630,
      "##iveness": 2631,
      "received": 2632,
      "modern": 2633,
      "grand": 2634,
      "choose": 2635,
      "youtu": 2636,
      "fear": 2637,
      "##lier": 2638,
      "quick": 2639,
      "fy": 2640,
      "##ource": 2641,
      "huge": 2642,
      "experienc": 2643,
      "kind": 2644,
      "##cent": 2645,
      "increased": 2646,
      "estab": 2647,
      "##21": 2648,
      "comwatch": 2649,
      "aut": 2650,
      "giving": 2651,
      "accept": 2652,
      "taxpayer": 2653,
      "##band": 2654,
      "##room": 2655,
      "guard": 2656,
      "negot": 2657,
      "round": 2658,
      "sat": 2659,
      "##cast": 2660,
      "##04": 2661,
      "invol": 2662,
      "reflect": 2663,
      "cnn": 2664,
      "##itch": 2665,
      "deb": 2666,
      "priorities": 2667,
      "##ever": 2668,
      "voice": 2669,
      "prepar": 2670,
      "liberal": 2671,
      "blo": 2672,
      "##erc": 2673,
      "trust": 2674,
      "saving": 2675,
      "meaning": 2676,
      "bat": 2677,
      "theyre": 2678,
      "request": 2679,
      "homes": 2680,
      "credit": 2681,
      "wages": 2682,
      "##ospital": 2683,
      "agree": 2684,
      "secured": 2685,
      "choice": 2686,
      "daily": 2687,
      "##ij": 2688,
      "repe": 2689,
      "leave": 2690,
      "rescue": 2691,
      "buy": 2692,
      "promise": 2693,
      "nuclear": 2694,
      "ahead": 2695,
      "##ides": 2696,
      "agencies": 2697,
      "##ox": 2698,
      "##avery": 2699,
      "rein": 2700,
      "resolution": 2701,
      "politic": 2702,
      "##ex": 2703,
      "advance": 2704,
      "transportation": 2705,
      "wants": 2706,
      "cat": 2707,
      "yes": 2708,
      "mc": 2709,
      "decl": 2710,
      "violent": 2711,
      "greatest": 2712,
      "transpar": 2713,
      "arr": 2714,
      "skyr": 2715,
      "necessary": 2716,
      "00": 2717,
      "er": 2718,
      "fis": 2719,
      "##13": 2720,
      "##opri": 2721,
      "recom": 2722,
      "retire": 2723,
      "shortage": 2724,
      "##most": 2725,
      "link": 2726,
      "##gs": 2727,
      "##ven": 2728,
      "##eth": 2729,
      "##aging": 2730,
      "suicide": 2731,
      "march": 2732,
      "pleasure": 2733,
      "carol": 2734,
      "provides": 2735,
      "##ept": 2736,
      "happening": 2737,
      "##fl": 2738,
      "impr": 2739,
      "hands": 2740,
      "##rimin": 2741,
      "growing": 2742,
      "honoring": 2743,
      "steps": 2744,
      "skyrocket": 2745,
      "pelosi": 2746,
      "appro": 2747,
      "libert": 2748,
      "protections": 2749,
      "reduc": 2750,
      "baby": 2751,
      "truly": 2752,
      "wsj": 2753,
      "consider": 2754,
      "fa": 2755,
      "hospital": 2756,
      "net": 2757,
      "##oken": 2758,
      "popul": 2759,
      "##ude": 2760,
      "restr": 2761,
      "jackson": 2762,
      "devastating": 2763,
      "advocate": 2764,
      "august": 2765,
      "duty": 2766,
      "##aign": 2767,
      "offer": 2768,
      "plans": 2769,
      "achieve": 2770,
      "murder": 2771,
      "alone": 2772,
      "exist": 2773,
      "##ively": 2774,
      "coll": 2775,
      "depend": 2776,
      "cc": 2777,
      "##andy": 2778,
      "pushing": 2779,
      "sus": 2780,
      "among": 2781,
      "wait": 2782,
      "rise": 2783,
      "design": 2784,
      "fun": 2785,
      "##bar": 2786,
      "##hill": 2787,
      "##ented": 2788,
      "accord": 2789,
      "marriage": 2790,
      "cover": 2791,
      "bey": 2792,
      "company": 2793,
      "package": 2794,
      "##reh": 2795,
      "fav": 2796,
      "gir": 2797,
      "##using": 2798,
      "claim": 2799,
      "servicemembers": 2800,
      "friday": 2801,
      "repj": 2802,
      "clin": 2803,
      "comarticles": 2804,
      "solution": 2805,
      "##ky": 2806,
      "pract": 2807,
      "##tra": 2808,
      "##now": 2809,
      "##ming": 2810,
      "starting": 2811,
      "employees": 2812,
      "towards": 2813,
      "wildf": 2814,
      "##aces": 2815,
      "info": 2816,
      "implement": 2817,
      "##biden": 2818,
      "potential": 2819,
      "conversation": 2820,
      "given": 2821,
      "##cl": 2822,
      "##bur": 2823,
      "abuse": 2824,
      "cauc": 2825,
      "producers": 2826,
      "ger": 2827,
      "##ader": 2828,
      "taxpayers": 2829,
      "42": 2830,
      "ok": 2831,
      "##erial": 2832,
      "senator": 2833,
      "facebook": 2834,
      "##vin": 2835,
      "##bon": 2836,
      "learning": 2837,
      "gave": 2838,
      "vide": 2839,
      "constitutional": 2840,
      "jew": 2841,
      "##fight": 2842,
      "beg": 2843,
      "ball": 2844,
      "nc": 2845,
      "##ances": 2846,
      "traged": 2847,
      "loans": 2848,
      "technology": 2849,
      "campaign": 2850,
      "marks": 2851,
      "earlier": 2852,
      "christ": 2853,
      "##iful": 2854,
      "##airs": 2855,
      "administrations": 2856,
      "doesnt": 2857,
      "ms": 2858,
      "##ift": 2859,
      "mandate": 2860,
      "virginia": 2861,
      "interested": 2862,
      "despite": 2863,
      "##uild": 2864,
      "bringing": 2865,
      "35": 2866,
      "##que": 2867,
      "deeply": 2868,
      "beyond": 2869,
      "announce": 2870,
      "homel": 2871,
      "##toamerica": 2872,
      "caucus": 2873,
      "relation": 2874,
      "##ney": 2875,
      "often": 2876,
      "##commit": 2877,
      "oversight": 2878,
      "vaccines": 2879,
      "urg": 2880,
      "##secur": 2881,
      "agriculture": 2882,
      "##ado": 2883,
      "mandates": 2884,
      "unleash": 2885,
      "fully": 2886,
      "basic": 2887,
      "jer": 2888,
      "mind": 2889,
      "patients": 2890,
      "appropri": 2891,
      "##ny": 2892,
      "##6th": 2893,
      "assoc": 2894,
      "establish": 2895,
      "##security": 2896,
      "##ished": 2897,
      "hill": 2898,
      "near": 2899,
      "##ulin": 2900,
      "lou": 2901,
      "##ones": 2902,
      "trad": 2903,
      "council": 2904,
      "commitmenttoamerica": 2905,
      "dedication": 2906,
      "33": 2907,
      "mi": 2908,
      "##opinion": 2909,
      "little": 2910,
      "##22": 2911,
      "##03": 2912,
      "##amed": 2913,
      "discrimin": 2914,
      "gold": 2915,
      "capitalist": 2916,
      "threats": 2917,
      "experience": 2918,
      "wage": 2919,
      "##ably": 2920,
      "priority": 2921,
      "500": 2922,
      "hund": 2923,
      "##ores": 2924,
      "doesn": 2925,
      "consequences": 2926,
      "##01": 2927,
      "##atic": 2928,
      "##iding": 2929,
      "visiting": 2930,
      "caused": 2931,
      "organiz": 2932,
      "##no": 2933,
      "##sa": 2934,
      "eligible": 2935,
      "hundred": 2936,
      "pip": 2937,
      "##05": 2938,
      "ability": 2939,
      "require": 2940,
      "bure": 2941,
      "cub": 2942,
      "environmental": 2943,
      "##val": 2944,
      "##esse": 2945,
      "##state": 2946,
      "agre": 2947,
      "##aving": 2948,
      "norm": 2949,
      "almost": 2950,
      "spent": 2951,
      "##going": 2952,
      "sending": 2953,
      "##ero": 2954,
      "accom": 2955,
      "guns": 2956,
      "deadly": 2957,
      "mary": 2958,
      "lowering": 2959,
      "comstory": 2960,
      "aust": 2961,
      "restrict": 2962,
      "##iod": 2963,
      "##ilt": 2964,
      "##accept": 2965,
      "##gress": 2966,
      "cruc": 2967,
      "reli": 2968,
      "feed": 2969,
      "beautiful": 2970,
      "shel": 2971,
      "recover": 2972,
      "##tern": 2973,
      "unaccept": 2974,
      "##inese": 2975,
      "michigan": 2976,
      "works": 2977,
      "partisan": 2978,
      "##viol": 2979,
      "massive": 2980,
      "ongoing": 2981,
      "chief": 2982,
      "armed": 2983,
      "##ancy": 2984,
      "propos": 2985,
      "dav": 2986,
      "##ball": 2987,
      "prosp": 2988,
      "career": 2989,
      "##where": 2990,
      "jewish": 2991,
      "mult": 2992,
      "pie": 2993,
      "##ron": 2994,
      "tot": 2995,
      "chinese": 2996,
      "##ibly": 2997,
      "supported": 2998,
      "anything": 2999,
      "favor": 3000,
      "##lu": 3001,
      "mission": 3002,
      "##west": 3003,
      "##mar": 3004,
      "empower": 3005,
      "##ios": 3006,
      "within": 3007,
      "regime": 3008,
      "##flation": 3009,
      "##ether": 3010,
      "happen": 3011,
      "breaking": 3012,
      "contributions": 3013,
      "iow": 3014,
      "##ota": 3015,
      "least": 3016,
      "joy": 3017,
      "lar": 3018,
      "##amental": 3019,
      "pharm": 3020,
      "ow": 3021,
      "attend": 3022,
      "situation": 3023,
      "encourage": 3024,
      "corr": 3025,
      "##14": 3026,
      "##16": 3027,
      "fundamental": 3028,
      "concerns": 3029,
      "crucial": 3030,
      "unacceptable": 3031,
      "##ites": 3032,
      "##road": 3033,
      "value": 3034,
      "com202209": 3035,
      "ult": 3036,
      "mus": 3037,
      "##oph": 3038,
      "collect": 3039,
      "directly": 3040,
      "everyday": 3041,
      "launch": 3042,
      "challenge": 3043,
      "amazing": 3044,
      "survivors": 3045,
      "half": 3046,
      "destro": 3047,
      "insurance": 3048,
      "clic": 3049,
      "forever": 3050,
      "penn": 3051,
      "vul": 3052,
      "island": 3053,
      "conference": 3054,
      "game": 3055,
      "light": 3056,
      "tenn": 3057,
      "##pre": 3058,
      "##cons": 3059,
      "webs": 3060,
      "tools": 3061,
      "east": 3062,
      "fast": 3063,
      "whether": 3064,
      "front": 3065,
      "##ecks": 3066,
      "investing": 3067,
      "absolut": 3068,
      "ct": 3069,
      "cart": 3070,
      "rather": 3071,
      "takes": 3072,
      "##xico": 3073,
      "##15": 3074,
      "##asc": 3075,
      "worker": 3076,
      "independent": 3077,
      "georg": 3078,
      "tragic": 3079,
      "##uit": 3080,
      "##sey": 3081,
      "shut": 3082,
      "related": 3083,
      "maga": 3084,
      "renew": 3085,
      "above": 3086,
      "blue": 3087,
      "perman": 3088,
      "vehic": 3089,
      "certain": 3090,
      "executive": 3091,
      "sil": 3092,
      "told": 3093,
      "billions": 3094,
      "##iance": 3095,
      "elected": 3096,
      "mad": 3097,
      "thir": 3098,
      "##vem": 3099,
      "rob": 3100,
      "urge": 3101,
      "louis": 3102,
      "vulner": 3103,
      "##ided": 3104,
      "##action": 3105,
      "talking": 3106,
      "confir": 3107,
      "conditions": 3108,
      "sanctions": 3109,
      "transparency": 3110,
      "online": 3111,
      "spec": 3112,
      "easter": 3113,
      "sold": 3114,
      "##icking": 3115,
      "holding": 3116,
      "streets": 3117,
      "##cmte": 3118,
      "super": 3119,
      "innoc": 3120,
      "troops": 3121,
      "mer": 3122,
      "rs": 3123,
      "condem": 3124,
      "##agement": 3125,
      "doj": 3126,
      "director": 3127,
      "firefight": 3128,
      "currently": 3129,
      "wing": 3130,
      "youre": 3131,
      "az": 3132,
      "##abilities": 3133,
      "judge": 3134,
      "lik": 3135,
      "however": 3136,
      "diff": 3137,
      "remains": 3138,
      "champion": 3139,
      "initi": 3140,
      "spr": 3141,
      "##draw": 3142,
      "##ba": 3143,
      "##06": 3144,
      "ending": 3145,
      "insulin": 3146,
      "impacted": 3147,
      "hundreds": 3148,
      "##van": 3149,
      "##12": 3150,
      "##atory": 3151,
      "withdraw": 3152,
      "counter": 3153,
      "donald": 3154,
      "different": 3155,
      "puert": 3156,
      "theres": 3157,
      "tim": 3158,
      "##sp": 3159,
      "##iction": 3160,
      "shows": 3161,
      "dist": 3162,
      "##ament": 3163,
      "##ared": 3164,
      "fort": 3165,
      "spread": 3166,
      "events": 3167,
      "difficult": 3168,
      "##pa": 3169,
      "toxic": 3170,
      "saw": 3171,
      "longer": 3172,
      "harris": 3173,
      "neighbors": 3174,
      "rebuild": 3175,
      "##cing": 3176,
      "##ki": 3177,
      "rates": 3178,
      "profess": 3179,
      "##guard": 3180,
      "several": 3181,
      "goes": 3182,
      "dise": 3183,
      "grad": 3184,
      "simply": 3185,
      "je": 3186,
      "worst": 3187,
      "built": 3188,
      "demanding": 3189,
      "stopped": 3190,
      "988": 3191,
      "lie": 3192,
      "##ains": 3193,
      "promote": 3194,
      "purch": 3195,
      "according": 3196,
      "87": 3197,
      "purs": 3198,
      "##ob": 3199,
      "##int": 3200,
      "##oples": 3201,
      "novem": 3202,
      "mexico": 3203,
      "responsible": 3204,
      "volun": 3205,
      "sust": 3206,
      "started": 3207,
      "countless": 3208,
      "website": 3209,
      "##field": 3210,
      "season": 3211,
      "cutting": 3212,
      "arizona": 3213,
      "##born": 3214,
      "simple": 3215,
      "wall": 3216,
      "tennesse": 3217,
      "##nam": 3218,
      "submit": 3219,
      "values": 3220,
      "##otten": 3221,
      "911": 3222,
      "##aiw": 3223,
      "shooting": 3224,
      "cer": 3225,
      "##bor": 3226,
      "teac": 3227,
      "saying": 3228,
      "shared": 3229,
      "overturn": 3230,
      "cod": 3231,
      "lands": 3232,
      "words": 3233,
      "subs": 3234,
      "##osh": 3235,
      "govserv": 3236,
      "click": 3237,
      "bol": 3238,
      "##ster": 3239,
      "deserves": 3240,
      "##violence": 3241,
      "interview": 3242,
      "div": 3243,
      "june": 3244,
      "thehill": 3245,
      "##ony": 3246,
      "stories": 3247,
      "standing": 3248,
      "november": 3249,
      "gar": 3250,
      "isn": 3251,
      "##ago": 3252,
      "migrants": 3253,
      "profits": 3254,
      "fema": 3255,
      "king": 3256,
      "mr": 3257,
      "##iet": 3258,
      "deleg": 3259,
      "##uster": 3260,
      "exposed": 3261,
      "officer": 3262,
      "liberty": 3263,
      "partnership": 3264,
      "organizations": 3265,
      "kans": 3266,
      "qual": 3267,
      "idea": 3268,
      "consumers": 3269,
      "enr": 3270,
      "##orders": 3271,
      "bright": 3272,
      "provis": 3273,
      "victory": 3274,
      "obs": 3275,
      "whole": 3276,
      "else": 3277,
      "oppos": 3278,
      "video": 3279,
      "lack": 3280,
      "brown": 3281,
      "representatives": 3282,
      "##acep": 3283,
      "##200": 3284,
      "celebration": 3285,
      "deadline": 3286,
      "asked": 3287,
      "meaningful": 3288,
      "pow": 3289,
      "comnewslocal": 3290,
      "stronger": 3291,
      "fle": 3292,
      "taiw": 3293,
      "##me": 3294,
      "storm": 3295,
      "commission": 3296,
      "##aring": 3297,
      "uncon": 3298,
      "course": 3299,
      "strategic": 3300,
      "legislative": 3301,
      "hes": 3302,
      "##uff": 3303,
      "marx": 3304,
      "final": 3305,
      "ga": 3306,
      "##ste": 3307,
      "trib": 3308,
      "expanding": 3309,
      "internet": 3310,
      "responsibility": 3311,
      "pan": 3312,
      "reserve": 3313,
      "coverage": 3314,
      "ii": 3315,
      "jun": 3316,
      "asking": 3317,
      "try": 3318,
      "emissions": 3319,
      "##astrous": 3320,
      "com202208": 3321,
      "innocent": 3322,
      "tre": 3323,
      "disastrous": 3324,
      "ruling": 3325,
      "vulnerable": 3326,
      "##aception": 3327,
      "sponsor": 3328,
      "presidents": 3329,
      "##enez": 3330,
      "para": 3331,
      "patri": 3332,
      "prosper": 3333,
      "6th": 3334,
      "##vious": 3335,
      "##25": 3336,
      "##alt": 3337,
      "##och": 3338,
      "exact": 3339,
      "authority": 3340,
      "rules": 3341,
      "focus": 3342,
      "ceremon": 3343,
      "##aft": 3344,
      "##umb": 3345,
      "interests": 3346,
      "##iers": 3347,
      "protest": 3348,
      "protected": 3349,
      "equip": 3350,
      "substance": 3351,
      "tragedy": 3352,
      "culture": 3353,
      "faith": 3354,
      "sound": 3355,
      "outr": 3356,
      "inte": 3357,
      "six": 3358,
      "##vp": 3359,
      "deaths": 3360,
      "forgiveness": 3361,
      "lu": 3362,
      "##urning": 3363,
      "introduce": 3364,
      "investigation": 3365,
      "cities": 3366,
      "dict": 3367,
      "went": 3368,
      "drive": 3369,
      "integr": 3370,
      "late": 3371,
      "##att": 3372,
      "##overty": 3373,
      "cdc": 3374,
      "var": 3375,
      "sect": 3376,
      "passage": 3377,
      "focused": 3378,
      "accompl": 3379,
      "##off": 3380,
      "##amber": 3381,
      "accessible": 3382,
      "extend": 3383,
      "industr": 3384,
      "##ither": 3385,
      "expans": 3386,
      "##vention": 3387,
      "##rol": 3388,
      "thom": 3389,
      "##ceed": 3390,
      "worth": 3391,
      "revolution": 3392,
      "purp": 3393,
      "application": 3394,
      "heat": 3395,
      "appla": 3396,
      "elimin": 3397,
      "##erate": 3398,
      "grants": 3399,
      "thrilled": 3400,
      "solid": 3401,
      "##ford": 3402,
      "weak": 3403,
      "profit": 3404,
      "street": 3405,
      "applaud": 3406,
      "thought": 3407,
      "##ows": 3408,
      "putins": 3409,
      "appreciate": 3410,
      "##breaking": 3411,
      "mothers": 3412,
      "skyrocketing": 3413,
      "orig": 3414,
      "relig": 3415,
      "poor": 3416,
      "##aud": 3417,
      "##iant": 3418,
      "##arity": 3419,
      "congrats": 3420,
      "##ireless": 3421,
      "affect": 3422,
      "included": 3423,
      "addressing": 3424,
      "problems": 3425,
      "difference": 3426,
      "grocery": 3427,
      "##by": 3428,
      "##mb": 3429,
      "rely": 3430,
      "suc": 3431,
      "enact": 3432,
      "##oses": 3433,
      "conservative": 3434,
      "determin": 3435,
      "girls": 3436,
      "poverty": 3437,
      "com2022": 3438,
      "period": 3439,
      "##debt": 3440,
      "alongside": 3441,
      "politicians": 3442,
      "##pect": 3443,
      "delivering": 3444,
      "virt": 3445,
      "might": 3446,
      "##down": 3447,
      "touch": 3448,
      "##ife": 3449,
      "table": 3450,
      "##asures": 3451,
      "advers": 3452,
      "##erved": 3453,
      "property": 3454,
      "side": 3455,
      "opinion": 3456,
      "##inois": 3457,
      "suffering": 3458,
      "apr": 3459,
      "known": 3460,
      "terrorist": 3461,
      "retirement": 3462,
      "ver": 3463,
      "##iner": 3464,
      "charg": 3465,
      "##ifying": 3466,
      "released": 3467,
      "privile": 3468,
      "wade": 3469,
      "comopinion": 3470,
      "preserve": 3471,
      "experiencing": 3472,
      "father": 3473,
      "nato": 3474,
      "ident": 3475,
      "river": 3476,
      "##lies": 3477,
      "##hr": 3478,
      "amb": 3479,
      "##john": 3480,
      "applications": 3481,
      "products": 3482,
      "occ": 3483,
      "constr": 3484,
      "extra": 3485,
      "##aps": 3486,
      "pregn": 3487,
      "details": 3488,
      "ceremony": 3489,
      "##ium": 3490,
      "age": 3491,
      "securing": 3492,
      "sexual": 3493,
      "##emonth": 3494,
      "taiwan": 3495,
      "areas": 3496,
      "numbers": 3497,
      "##standing": 3498,
      "luck": 3499,
      "expect": 3500,
      "impacts": 3501,
      "terrorists": 3502,
      "##aves": 3503,
      "whats": 3504,
      "bidenflation": 3505,
      "sav": 3506,
      "recip": 3507,
      "##ston": 3508,
      "princ": 3509,
      "alab": 3510,
      "calls": 3511,
      "goods": 3512,
      "planet": 3513,
      "groups": 3514,
      "##committee": 3515,
      "journ": 3516,
      "roll": 3517,
      "##max": 3518,
      "store": 3519,
      "nev": 3520,
      "knew": 3521,
      "allowed": 3522,
      "beginning": 3523,
      "##gun": 3524,
      "##mc": 3525,
      "prison": 3526,
      "crimes": 3527,
      "household": 3528,
      "regarding": 3529,
      "##30": 3530,
      "influ": 3531,
      "##woman": 3532,
      "reliable": 3533,
      "tireless": 3534,
      "shot": 3535,
      "governor": 3536,
      "##aucus": 3537,
      "message": 3538,
      "##enezuel": 3539,
      "expansion": 3540,
      "helps": 3541,
      "speed": 3542,
      "behalf": 3543,
      "tack": 3544,
      "enh": 3545,
      "became": 3546,
      "total": 3547,
      "puerto": 3548,
      "aud": 3549,
      "##new": 3550,
      "brought": 3551,
      "raising": 3552,
      "illinois": 3553,
      "cyber": 3554,
      "##emor": 3555,
      "humanitarian": 3556,
      "five": 3557,
      "##dit": 3558,
      "##mp": 3559,
      "trip": 3560,
      "##awareness": 3561,
      "provided": 3562,
      "##loyment": 3563,
      "approach": 3564,
      "race": 3565,
      "##dened": 3566,
      "##oting": 3567,
      "waste": 3568,
      "express": 3569,
      "broadband": 3570,
      "mobile": 3571,
      "defin": 3572,
      "ccp": 3573,
      "german": 3574,
      "##ett": 3575,
      "results": 3576,
      "moving": 3577,
      "##berg": 3578,
      "text": 3579,
      "thankful": 3580,
      "centers": 3581,
      "contract": 3582,
      "third": 3583,
      "govservices": 3584,
      "400": 3585,
      "##border": 3586,
      "weather": 3587,
      "shouldnt": 3588,
      "colleague": 3589,
      "didnt": 3590,
      "involved": 3591,
      "800": 3592,
      "fraud": 3593,
      "##aper": 3594,
      "proudly": 3595,
      "recognition": 3596,
      "easy": 3597,
      "x200": 3598,
      "transit": 3599,
      "phys": 3600,
      "shortages": 3601,
      "x200b": 3602,
      "base": 3603,
      "senior": 3604,
      "defic": 3605,
      "speaking": 3606,
      "weapon": 3607,
      "holiday": 3608,
      "firefighters": 3609,
      "volunte": 3610,
      "allowing": 3611,
      "century": 3612,
      "avo": 3613,
      "##ipping": 3614,
      "45": 3615,
      "##plan": 3616,
      "carolina": 3617,
      "april": 3618,
      "60": 3619,
      "sem": 3620,
      "venezuel": 3621,
      "##7th": 3622,
      "discrimination": 3623,
      "hr": 3624,
      "nbc": 3625,
      "##oy": 3626,
      "happened": 3627,
      "##greg": 3628,
      "##ater": 3629,
      "stem": 3630,
      "crises": 3631,
      "measures": 3632,
      "##ibuster": 3633,
      "view": 3634,
      "systems": 3635,
      "relationship": 3636,
      "ham": 3637,
      "partner": 3638,
      "patrol": 3639,
      "peoples": 3640,
      "prep": 3641,
      "##letter": 3642,
      "##onsense": 3643,
      "died": 3644,
      "levels": 3645,
      "mist": 3646,
      "##usion": 3647,
      "prosec": 3648,
      "##formation": 3649,
      "earth": 3650,
      "absolutely": 3651,
      "##car": 3652,
      "##isem": 3653,
      "reject": 3654,
      "unions": 3655,
      "receiving": 3656,
      "cases": 3657,
      "wind": 3658,
      "##hib": 3659,
      "##edia": 3660,
      "##pping": 3661,
      "usa": 3662,
      "voters": 3663,
      "emb": 3664,
      "newsmax": 3665,
      "##orkas": 3666,
      "roads": 3667,
      "sot": 3668,
      "evidence": 3669,
      "undermin": 3670,
      "status": 3671,
      "positive": 3672,
      "commemor": 3673,
      "bravery": 3674,
      "desk": 3675,
      "criminals": 3676,
      "##ged": 3677,
      "##alo": 3678,
      "##ival": 3679,
      "die": 3680,
      "rid": 3681,
      "##bp": 3682,
      "##enth": 3683,
      "include": 3684,
      "evening": 3685,
      "piece": 3686,
      "native": 3687,
      "##akers": 3688,
      "whose": 3689,
      "ultimate": 3690,
      "gender": 3691,
      "##syl": 3692,
      "##fect": 3693,
      "gets": 3694,
      "improving": 3695,
      "##ground": 3696,
      "owned": 3697,
      "2023": 3698,
      "bank": 3699,
      "struggle": 3700,
      "charge": 3701,
      "corrupt": 3702,
      "delegation": 3703,
      "##vest": 3704,
      "inj": 3705,
      "demon": 3706,
      "phil": 3707,
      "western": 3708,
      "exactly": 3709,
      "nas": 3710,
      "upon": 3711,
      "antisem": 3712,
      "organization": 3713,
      "racial": 3714,
      "##cience": 3715,
      "amount": 3716,
      "unpre": 3717,
      "navy": 3718,
      "fiscal": 3719,
      "las": 3720,
      "name": 3721,
      "##itage": 3722,
      "voter": 3723,
      "updates": 3724,
      "flooding": 3725,
      "libr": 3726,
      "sacrifices": 3727,
      "effects": 3728,
      "corporate": 3729,
      "epa": 3730,
      "princip": 3731,
      "dig": 3732,
      "displ": 3733,
      "explo": 3734,
      "hurting": 3735,
      "condol": 3736,
      "epid": 3737,
      "seeking": 3738,
      "doctors": 3739,
      "##aa": 3740,
      "##ilit": 3741,
      "##urch": 3742,
      "quickly": 3743,
      "mother": 3744,
      "changed": 3745,
      "complete": 3746,
      "80": 3747,
      "ax": 3748,
      "catch": 3749,
      "fill": 3750,
      "rh": 3751,
      "##do": 3752,
      "##caucus": 3753,
      "##uters": 3754,
      "affected": 3755,
      "minor": 3756,
      "professional": 3757,
      "succeed": 3758,
      "wit": 3759,
      "active": 3760,
      "biggest": 3761,
      "missed": 3762,
      "equity": 3763,
      "association": 3764,
      "condolences": 3765,
      "stock": 3766,
      "greater": 3767,
      "maint": 3768,
      "stopping": 3769,
      "withdrawal": 3770,
      "borrow": 3771,
      "borders": 3772,
      "son": 3773,
      "unemp": 3774,
      "ia": 3775,
      "brit": 3776,
      "divers": 3777,
      "powerful": 3778,
      "failure": 3779,
      "january6th": 3780,
      "institut": 3781,
      "prepared": 3782,
      "sustain": 3783,
      "ran": 3784,
      "##table": 3785,
      "##abor": 3786,
      "contact": 3787,
      "opening": 3788,
      "rsvp": 3789,
      "2nd": 3790,
      "jim": 3791,
      "rail": 3792,
      "zero": 3793,
      "##arr": 3794,
      "##repr": 3795,
      "govpress": 3796,
      "wanted": 3797,
      "university": 3798,
      "hot": 3799,
      "##wal": 3800,
      "##iated": 3801,
      "##information": 3802,
      "##imum": 3803,
      "monday": 3804,
      "claims": 3805,
      "large": 3806,
      "epidemic": 3807,
      "dhs": 3808,
      "##va": 3809,
      "viet": 3810,
      "chains": 3811,
      "barri": 3812,
      "##sylvan": 3813,
      "nurs": 3814,
      "contraception": 3815,
      "##cedented": 3816,
      "effective": 3817,
      "saddened": 3818,
      "horrific": 3819,
      "disease": 3820,
      "unprecedented": 3821,
      "28": 3822,
      "field": 3823,
      "nj": 3824,
      "pal": 3825,
      "##lands": 3826,
      "##pro": 3827,
      "##bert": 3828,
      "evil": 3829,
      "##avy": 3830,
      "refuge": 3831,
      "blessed": 3832,
      "likely": 3833,
      "privilege": 3834,
      "damage": 3835,
      "31": 3836,
      "comus": 3837,
      "book": 3838,
      "delivered": 3839,
      "wiscons": 3840,
      "georgia": 3841,
      "sotu": 3842,
      "hy": 3843,
      "vp": 3844,
      "##ugh": 3845,
      "prim": 3846,
      "presidential": 3847,
      "defund": 3848,
      "cnbc": 3849,
      "mot": 3850,
      "sell": 3851,
      "##wa": 3852,
      "##mun": 3853,
      "remind": 3854,
      "concerned": 3855,
      "cartels": 3856,
      "##antage": 3857,
      "complet": 3858,
      "heritage": 3859,
      "subcommittee": 3860,
      "1st": 3861,
      "cand": 3862,
      "blame": 3863,
      "##stud": 3864,
      "conv": 3865,
      "shame": 3866,
      "##ums": 3867,
      "compreh": 3868,
      "heres": 3869,
      "percent": 3870,
      "resource": 3871,
      "paych": 3872,
      "transition": 3873,
      "successful": 3874,
      "bus": 3875,
      "kore": 3876,
      "ps": 3877,
      "##itism": 3878,
      "produce": 3879,
      "##aucr": 3880,
      "appropriations": 3881,
      "##urday": 3882,
      "bureaucr": 3883,
      "equipment": 3884,
      "nut": 3885,
      "##don": 3886,
      "bridges": 3887,
      "roundtable": 3888,
      "burn": 3889,
      "##ez": 3890,
      "church": 3891,
      "##erving": 3892,
      "thinking": 3893,
      "pennsylvan": 3894,
      "cas": 3895,
      "mask": 3896,
      "##wood": 3897,
      "##bit": 3898,
      "aggr": 3899,
      "perfect": 3900,
      "##athers": 3901,
      "seems": 3902,
      "##mark": 3903,
      "appoint": 3904,
      "hurt": 3905,
      "consumer": 3906,
      "filibuster": 3907,
      "bi": 3908,
      "named": 3909,
      "pac": 3910,
      "wed": 3911,
      "##na": 3912,
      "afric": 3913,
      "mike": 3914,
      "##ga": 3915,
      "##etter": 3916,
      "##igen": 3917,
      "##commer": 3918,
      "wealthy": 3919,
      "jersey": 3920,
      "eth": 3921,
      "fest": 3922,
      "##ined": 3923,
      "##elt": 3924,
      "##izes": 3925,
      "providers": 3926,
      "##rescue": 3927,
      "deficit": 3928,
      "fda": 3929,
      "##body": 3930,
      "##08": 3931,
      "review": 3932,
      "##utes": 3933,
      "##oper": 3934,
      "##istration": 3935,
      "198": 3936,
      "participate": 3937,
      "neighbor": 3938,
      "permanent": 3939,
      "##arc": 3940,
      "willing": 3941,
      "newsletter": 3942,
      "##crib": 3943,
      "breast": 3944,
      "70": 3945,
      "nda": 3946,
      "upcoming": 3947,
      "room": 3948,
      "condemn": 3949,
      "sector": 3950,
      "##bordercrisis": 3951,
      "kent": 3952,
      "site": 3953,
      "typ": 3954,
      "haw": 3955,
      "##ikip": 3956,
      "voices": 3957,
      "hunger": 3958,
      "completely": 3959,
      "pride": 3960,
      "votes": 3961,
      "attention": 3962,
      "americanrescue": 3963,
      "argu": 3964,
      "##ously": 3965,
      "coal": 3966,
      "trumps": 3967,
      "##ikes": 3968,
      "running": 3969,
      "bod": 3970,
      "sher": 3971,
      "outstanding": 3972,
      "thrive": 3973,
      "afterno": 3974,
      "privacy": 3975,
      "comarticle": 3976,
      "dark": 3977,
      "##07": 3978,
      "chic": 3979,
      "except": 3980,
      "aggression": 3981,
      "##commerce": 3982,
      "sun": 3983,
      "##ete": 3984,
      "discussing": 3985,
      "ideas": 3986,
      "immediate": 3987,
      "comprehensive": 3988,
      "afternoon": 3989,
      "cens": 3990,
      "##law": 3991,
      "##verse": 3992,
      "reports": 3993,
      "recon": 3994,
      "study": 3995,
      "walk": 3996,
      "reducing": 3997,
      "task": 3998,
      "##andon": 3999,
      "##ression": 4000,
      "utah": 4001,
      "##life": 4002,
      "teacher": 4003,
      "ndaa": 4004,
      "##wis": 4005,
      "unif": 4006,
      "justices": 4007,
      "courts": 4008,
      "whitehouse": 4009,
      "skills": 4010,
      "conduct": 4011,
      "trafficking": 4012,
      "rico": 4013,
      "##26": 4014,
      "##try": 4015,
      "brief": 4016,
      "broken": 4017,
      "sharing": 4018,
      "burden": 4019,
      "adversaries": 4020,
      "##live": 4021,
      "##ham": 4022,
      "##ored": 4023,
      "vietnam": 4024,
      "americanrescueplan": 4025,
      "oreg": 4026,
      "##cle": 4027,
      "outside": 4028,
      "sched": 4029,
      "medal": 4030,
      "carry": 4031,
      "wisconsin": 4032,
      "##igenous": 4033,
      "rap": 4034,
      "##arant": 4035,
      "indiana": 4036,
      "indigenous": 4037,
      "latino": 4038,
      "proposed": 4039,
      "releases": 4040,
      "soldiers": 4041,
      "origin": 4042,
      "##itude": 4043,
      "alert": 4044,
      "adult": 4045,
      "##ework": 4046,
      "defending": 4047,
      "ballot": 4048,
      "pipeline": 4049,
      "unemployment": 4050,
      "##ael": 4051,
      "##cont": 4052,
      "govt": 4053,
      "advantage": 4054,
      "changes": 4055,
      "alabama": 4056,
      "##arks": 4057,
      "goal": 4058,
      "crack": 4059,
      "##aho": 4060,
      "vaccinated": 4061,
      "negotiate": 4062,
      "solidarity": 4063,
      "##ued": 4064,
      "brut": 4065,
      "protects": 4066,
      "payments": 4067,
      "##ounty": 4068,
      "witness": 4069,
      "borrowers": 4070,
      "checks": 4071,
      "##herit": 4072,
      "destroy": 4073,
      "bay": 4074,
      "dign": 4075,
      "jap": 4076,
      "via": 4077,
      "##ii": 4078,
      "itself": 4079,
      "regulations": 4080,
      "artic": 4081,
      "pollution": 4082,
      "gou": 4083,
      "lines": 4084,
      "wake": 4085,
      "forgotten": 4086,
      "susp": 4087,
      "scient": 4088,
      "provisions": 4089,
      "tem": 4090,
      "##odcast": 4091,
      "uphold": 4092,
      "premi": 4093,
      "happens": 4094,
      "particul": 4095,
      "saturday": 4096,
      "300": 4097,
      "date": 4098,
      "pun": 4099,
      "commonsense": 4100,
      "uniform": 4101,
      "corn": 4102,
      "##yle": 4103,
      "##mo": 4104,
      "##aching": 4105,
      "##ortun": 4106,
      "lock": 4107,
      "institutions": 4108,
      "##erb": 4109,
      "##eries": 4110,
      "##ature": 4111,
      "congresswoman": 4112,
      "roy": 4113,
      "##stitutional": 4114,
      "talib": 4115,
      "strengthening": 4116,
      "eastern": 4117,
      "unconstitutional": 4118,
      "##hand": 4119,
      "ine": 4120,
      "parties": 4121,
      "becoming": 4122,
      "winter": 4123,
      "##ursday": 4124,
      "operations": 4125,
      "##iciary": 4126,
      "savings": 4127,
      "##aust": 4128,
      "##fer": 4129,
      "##fare": 4130,
      "anarch": 4131,
      "##ull": 4132,
      "governments": 4133,
      "increases": 4134,
      "kentuck": 4135,
      "##ikipedia": 4136,
      "cbp": 4137,
      "wikipedia": 4138,
      "##pe": 4139,
      "##agemonth": 4140,
      "planning": 4141,
      "##aught": 4142,
      "agreement": 4143,
      "sick": 4144,
      "##pelosi": 4145,
      "##aced": 4146,
      "##pped": 4147,
      "abort": 4148,
      "##oves": 4149,
      "orgw": 4150,
      "##valde": 4151,
      "##rection": 4152,
      "spir": 4153,
      "usda": 4154,
      "priorit": 4155,
      "killing": 4156,
      "##60": 4157,
      "queen": 4158,
      "etc": 4159,
      "maryland": 4160,
      "outrage": 4161,
      "either": 4162,
      "fathers": 4163,
      "unborn": 4164,
      "##ivity": 4165,
      "incent": 4166,
      "arent": 4167,
      "recognized": 4168,
      "airport": 4169,
      "feeling": 4170,
      "proposal": 4171,
      "candid": 4172,
      "tried": 4173,
      "##antis": 4174,
      "usc": 4175,
      "counsel": 4176,
      "accomplish": 4177,
      "##gunviolence": 4178,
      "cam": 4179,
      "finish": 4180,
      "approps": 4181,
      "fly": 4182,
      "##put": 4183,
      "beach": 4184,
      "surpr": 4185,
      "winning": 4186,
      "fallen": 4187,
      "avoid": 4188,
      "japan": 4189,
      "taliban": 4190,
      "uvalde": 4191,
      "##65": 4192,
      "##aca": 4193,
      "pret": 4194,
      "facilities": 4195,
      "##whel": 4196,
      "shootings": 4197,
      "75": 4198,
      "cust": 4199,
      "##izab": 4200,
      "management": 4201,
      "lawm": 4202,
      "funded": 4203,
      "regional": 4204,
      "guarant": 4205,
      "iowa": 4206,
      "lake": 4207,
      "##vere": 4208,
      "ally": 4209,
      "chat": 4210,
      "showing": 4211,
      "expected": 4212,
      "buff": 4213,
      "197": 4214,
      "allows": 4215,
      "options": 4216,
      "cbs": 4217,
      "rent": 4218,
      "##bing": 4219,
      "supports": 4220,
      "##orski": 4221,
      "knows": 4222,
      "enroll": 4223,
      "virtual": 4224,
      "demonstr": 4225,
      "4th": 4226,
      "lies": 4227,
      "tyr": 4228,
      "##cs": 4229,
      "bidenbordercrisis": 4230,
      "foot": 4231,
      "minnes": 4232,
      "incredibly": 4233,
      "speakerpelosi": 4234,
      "hyp": 4235,
      "md": 4236,
      "##gre": 4237,
      "##ayed": 4238,
      "##ador": 4239,
      "trail": 4240,
      "com202207": 4241,
      "introducing": 4242,
      "playing": 4243,
      "27": 4244,
      "##ko": 4245,
      "##rant": 4246,
      "aren": 4247,
      "conflic": 4248,
      "##world": 4249,
      "engine": 4250,
      "tennessee": 4251,
      "##heritagemonth": 4252,
      "mal": 4253,
      "mart": 4254,
      "hour": 4255,
      "##ification": 4256,
      "material": 4257,
      "oregon": 4258,
      "sand": 4259,
      "##card": 4260,
      "thursday": 4261,
      "##enews": 4262,
      "##itz": 4263,
      "stage": 4264,
      "##acity": 4265,
      "overwhel": 4266,
      "199": 4267,
      "##def": 4268,
      "##place": 4269,
      "paul": 4270,
      "dollar": 4271,
      "position": 4272,
      "comstorynews": 4273,
      "prepare": 4274,
      "word": 4275,
      "disp": 4276,
      "russias": 4277,
      "technolog": 4278,
      "easier": 4279,
      "gallon": 4280,
      "ey": 4281,
      "fal": 4282,
      "fasc": 4283,
      "pocket": 4284,
      "ang": 4285,
      "tests": 4286,
      "testing": 4287,
      "constituent": 4288,
      "blocked": 4289,
      "barriers": 4290,
      "cir": 4291,
      "elizab": 4292,
      "repeal": 4293,
      "gives": 4294,
      "##ef": 4295,
      "##han": 4296,
      "dept": 4297,
      "##ordin": 4298,
      "yourself": 4299,
      "driving": 4300,
      "background": 4301,
      "domin": 4302,
      "diversity": 4303,
      "34": 4304,
      "bans": 4305,
      "##ua": 4306,
      "##icy": 4307,
      "remove": 4308,
      "minister": 4309,
      "corps": 4310,
      "wrote": 4311,
      "solve": 4312,
      "##nesday": 4313,
      "##illing": 4314,
      "prec": 4315,
      "officially": 4316,
      "facts": 4317,
      "recommit": 4318,
      "hop": 4319,
      "pred": 4320,
      "select": 4321,
      "score": 4322,
      "hunter": 4323,
      "strategy": 4324,
      "unfortun": 4325,
      "construction": 4326,
      "pen": 4327,
      "##how": 4328,
      "##stone": 4329,
      "expensive": 4330,
      "##uesday": 4331,
      "minimum": 4332,
      "manufactur": 4333,
      "cast": 4334,
      "lose": 4335,
      "mn": 4336,
      "reddit": 4337,
      "buildback": 4338,
      "##burg": 4339,
      "dignity": 4340,
      "mourn": 4341,
      "##erce": 4342,
      "theory": 4343,
      "##usive": 4344,
      "prohib": 4345,
      "looks": 4346,
      "evac": 4347,
      "##ledge": 4348,
      "investigate": 4349,
      "population": 4350,
      "gradu": 4351,
      "##with": 4352,
      "##33": 4353,
      "adm": 4354,
      "##ipped": 4355,
      "abortions": 4356,
      "daugh": 4357,
      "gain": 4358,
      "ri": 4359,
      "vice": 4360,
      "##gan": 4361,
      "##agher": 4362,
      "opio": 4363,
      "maybe": 4364,
      "transform": 4365,
      "firearm": 4366,
      "sam": 4367,
      "##my": 4368,
      "##ision": 4369,
      "##oval": 4370,
      "##phone": 4371,
      "##ibute": 4372,
      "recomm": 4373,
      "##reprene": 4374,
      "body": 4375,
      "##aur": 4376,
      "hosted": 4377,
      "cuts": 4378,
      "changing": 4379,
      "george": 4380,
      "kansas": 4381,
      "tackle": 4382,
      "tuesday": 4383,
      "wood": 4384,
      "##oto": 4385,
      "com202": 4386,
      "anal": 4387,
      "stra": 4388,
      "memory": 4389,
      "##angu": 4390,
      "entreprene": 4391,
      "foundation": 4392,
      "jackie": 4393,
      "bail": 4394,
      "ron": 4395,
      "sn": 4396,
      "##ishing": 4397,
      "##acon": 4398,
      "##erson": 4399,
      "##ocking": 4400,
      "disabilities": 4401,
      "endgunviolence": 4402,
      "firsthand": 4403,
      "vision": 4404,
      "advocates": 4405,
      "swift": 4406,
      "reforms": 4407,
      "advanced": 4408,
      "##eteenth": 4409,
      "gouging": 4410,
      "elizabeth": 4411,
      "owe": 4412,
      "##ese": 4413,
      "books": 4414,
      "didn": 4415,
      "petro": 4416,
      "wildfires": 4417,
      "venezuela": 4418,
      "tempor": 4419,
      "kick": 4420,
      "##hear": 4421,
      "##esp": 4422,
      "ourselves": 4423,
      "everywhere": 4424,
      "strike": 4425,
      "##ocument": 4426,
      "approved": 4427,
      "terrorism": 4428,
      "initiative": 4429,
      "appropsdems": 4430,
      "##ument": 4431,
      "##ashing": 4432,
      "studentaid": 4433,
      "behav": 4434,
      "femin": 4435,
      "nbcnews": 4436,
      "##mas": 4437,
      "enem": 4438,
      "sovere": 4439,
      "reading": 4440,
      "direction": 4441,
      "pacific": 4442,
      "mcc": 4443,
      "ranch": 4444,
      "##mn": 4445,
      "##men": 4446,
      "##itable": 4447,
      "frank": 4448,
      "scre": 4449,
      "peaceful": 4450,
      "chairman": 4451,
      "racism": 4452,
      "david": 4453,
      "bold": 4454,
      "gone": 4455,
      "##fast": 4456,
      "##24": 4457,
      "stream": 4458,
      "##igation": 4459,
      "willi": 4460,
      "places": 4461,
      "excell": 4462,
      "prosperity": 4463,
      "nutr": 4464,
      "brutal": 4465,
      "fig": 4466,
      "ian": 4467,
      "##rect": 4468,
      "learned": 4469,
      "surr": 4470,
      "awarded": 4471,
      "destr": 4472,
      "doub": 4473,
      "groceries": 4474,
      "homeland": 4475,
      "neighborhood": 4476,
      "hhs": 4477,
      "wy": 4478,
      "commerce": 4479,
      "##ossil": 4480,
      "academies": 4481,
      "crossings": 4482,
      "limit": 4483,
      "ten": 4484,
      "##ta": 4485,
      "##29": 4486,
      "reps": 4487,
      "coup": 4488,
      "expos": 4489,
      "progressive": 4490,
      "nomination": 4491,
      "##iju": 4492,
      "wife": 4493,
      "##better": 4494,
      "##icient": 4495,
      "monit": 4496,
      "stands": 4497,
      "advis": 4498,
      "signing": 4499,
      "wildfire": 4500,
      "subsid": 4501,
      "library": 4502,
      "fossil": 4503,
      "jr": 4504,
      "##lah": 4505,
      "ali": 4506,
      "##istic": 4507,
      "repb": 4508,
      "abroad": 4509,
      "##congress": 4510,
      "ends": 4511,
      "safely": 4512,
      "battle": 4513,
      "libertarian": 4514,
      "gap": 4515,
      "mount": 4516,
      "station": 4517,
      "##acin": 4518,
      "imag": 4519,
      "drought": 4520,
      "religious": 4521,
      "buffalo": 4522,
      "kim": 4523,
      "##ns": 4524,
      "##oma": 4525,
      "orange": 4526,
      "puts": 4527,
      "##ellig": 4528,
      "advocacy": 4529,
      "command": 4530,
      "plat": 4531,
      "shouldn": 4532,
      "weekly": 4533,
      "attended": 4534,
      "nyc": 4535,
      "insurrection": 4536,
      "orgwik": 4537,
      "dad": 4538,
      "era": 4539,
      "poin": 4540,
      "yom": 4541,
      "##sen": 4542,
      "##ih": 4543,
      "##oles": 4544,
      "lewis": 4545,
      "harder": 4546,
      "hoosi": 4547,
      "straight": 4548,
      "mail": 4549,
      "##nel": 4550,
      "##inas": 4551,
      "##agen": 4552,
      "myself": 4553,
      "##asters": 4554,
      "decade": 4555,
      "senseless": 4556,
      "recipients": 4557,
      "prioritize": 4558,
      "dan": 4559,
      "dial": 4560,
      "##ha": 4561,
      "##ala": 4562,
      "##stant": 4563,
      "terrible": 4564,
      "universal": 4565,
      "##ijuana": 4566,
      "born": 4567,
      "sb": 4568,
      "semic": 4569,
      "##leum": 4570,
      "forth": 4571,
      "##iverse": 4572,
      "##onduct": 4573,
      "moral": 4574,
      "experts": 4575,
      "homeless": 4576,
      "com202210": 4577,
      "fost": 4578,
      "##lant": 4579,
      "saud": 4580,
      "offices": 4581,
      "ceo": 4582,
      "surve": 4583,
      "announcement": 4584,
      "fourth": 4585,
      "juneteenth": 4586,
      "semiconduct": 4587,
      "oce": 4588,
      "uk": 4589,
      "stake": 4590,
      "##thr": 4591,
      "anim": 4592,
      "chamber": 4593,
      "abandon": 4594,
      "plant": 4595,
      "counties": 4596,
      "selfless": 4597,
      "multip": 4598,
      "integrity": 4599,
      "wednesday": 4600,
      "defe": 4601,
      "abiding": 4602,
      "remarks": 4603,
      "##27": 4604,
      "##igate": 4605,
      "capt": 4606,
      "refuse": 4607,
      "summit": 4608,
      "telephone": 4609,
      "doctor": 4610,
      "hoosiers": 4611,
      "mit": 4612,
      "##eed": 4613,
      "##li": 4614,
      "##ormed": 4615,
      "goals": 4616,
      "sports": 4617,
      "hell": 4618,
      "##forms": 4619,
      "talked": 4620,
      "overdue": 4621,
      "vehicles": 4622,
      "mistake": 4623,
      "spirit": 4624,
      "petroleum": 4625,
      "daca": 4626,
      "##rd": 4627,
      "##ements": 4628,
      "sug": 4629,
      "truck": 4630,
      "grat": 4631,
      "##ucks": 4632,
      "celebrated": 4633,
      "guid": 4634,
      "compolitics2022": 4635,
      "unfortunately": 4636,
      "woke": 4637,
      "reverse": 4638,
      "##oted": 4639,
      "polit": 4640,
      "representative": 4641,
      "reached": 4642,
      "gallagher": 4643,
      "bridge": 4644,
      "gather": 4645,
      "##reach": 4646,
      "acts": 4647,
      "dism": 4648,
      "added": 4649,
      "warning": 4650,
      "watching": 4651,
      "southwest": 4652,
      "apnews": 4653,
      "antisemitism": 4654,
      "adults": 4655,
      "incom": 4656,
      "productive": 4657,
      "parks": 4658,
      "normal": 4659,
      "##cap": 4660,
      "##yn": 4661,
      "##rens": 4662,
      "##oral": 4663,
      "##ocks": 4664,
      "unc": 4665,
      "resol": 4666,
      "december": 4667,
      "##ried": 4668,
      "impacting": 4669,
      "digital": 4670,
      "##bin": 4671,
      "##oked": 4672,
      "previous": 4673,
      "failing": 4674,
      "fy23": 4675,
      "arrest": 4676,
      "cuba": 4677,
      "patriot": 4678,
      "37": 4679,
      "##nday": 4680,
      "##oms": 4681,
      "##ocaust": 4682,
      "attorn": 4683,
      "cooper": 4684,
      "armen": 4685,
      "racist": 4686,
      "inspired": 4687,
      "hawai": 4688,
      "bal": 4689,
      "bott": 4690,
      "theyve": 4691,
      "carbon": 4692,
      "closer": 4693,
      "debate": 4694,
      "behavior": 4695,
      "hud": 4696,
      "rock": 4697,
      "wi": 4698,
      "usd": 4699,
      "marijuana": 4700,
      "restrictions": 4701,
      "page": 4702,
      "asian": 4703,
      "abc": 4704,
      "usps": 4705,
      "saved": 4706,
      "safeguard": 4707,
      "combusiness": 4708,
      "lifes": 4709,
      "sustainable": 4710,
      "pennsylvania": 4711,
      "npr": 4712,
      "##lam": 4713,
      "uni": 4714,
      "##auth": 4715,
      "unders": 4716,
      "##aires": 4717,
      "purchase": 4718,
      "buildbackbetter": 4719,
      "##anj": 4720,
      "##forget": 4721,
      "columb": 4722,
      "restoring": 4723,
      "missing": 4724,
      "reported": 4725,
      "holocaust": 4726,
      "false": 4727,
      "##col": 4728,
      "##call": 4729,
      "##rupt": 4730,
      "##ady": 4731,
      "##ibune": 4732,
      "attending": 4733,
      "farms": 4734,
      "enforce": 4735,
      "21st": 4736,
      "pas": 4737,
      "##ca": 4738,
      "##hel": 4739,
      "##etime": 4740,
      "##acies": 4741,
      "goog": 4742,
      "##key": 4743,
      "overse": 4744,
      "marine": 4745,
      "com202206": 4746,
      "welfare": 4747,
      "heartbreaking": 4748,
      "bolster": 4749,
      "thomas": 4750,
      "manufacturers": 4751,
      "##lines": 4752,
      "##fort": 4753,
      "##28": 4754,
      "##onz": 4755,
      "##itten": 4756,
      "chap": 4757,
      "lift": 4758,
      "recr": 4759,
      "##ension": 4760,
      "capacity": 4761,
      "buying": 4762,
      "nypost": 4763,
      "records": 4764,
      "extremist": 4765,
      "hire": 4766,
      "##energy": 4767,
      "##astic": 4768,
      "perform": 4769,
      "oppose": 4770,
      "catastr": 4771,
      "card": 4772,
      "gople": 4773,
      "##uable": 4774,
      "indian": 4775,
      "##athy": 4776,
      "missour": 4777,
      "targeted": 4778,
      "cop": 4779,
      "lunch": 4780,
      "##roc": 4781,
      "forcing": 4782,
      "##endous": 4783,
      "standard": 4784,
      "cars": 4785,
      "ramp": 4786,
      "sens": 4787,
      "##ole": 4788,
      "##44": 4789,
      "##ano": 4790,
      "moms": 4791,
      "favorite": 4792,
      "influence": 4793,
      "##awarenessmonth": 4794,
      "lawmakers": 4795,
      "cool": 4796,
      "documents": 4797,
      "session": 4798,
      "zel": 4799,
      "##aling": 4800,
      "##ocial": 4801,
      "trou": 4802,
      "intellig": 4803,
      "controll": 4804,
      "classroom": 4805,
      "wildlife": 4806,
      "opioid": 4807,
      "langu": 4808,
      "##rights": 4809,
      "##hall": 4810,
      "##ena": 4811,
      "##cher": 4812,
      "abol": 4813,
      "earn": 4814,
      "iranian": 4815,
      "circ": 4816,
      "##uing": 4817,
      "registration": 4818,
      "##rick": 4819,
      "matern": 4820,
      "harass": 4821,
      "departments": 4822,
      "turned": 4823,
      "cosponsored": 4824,
      "codify": 4825,
      "nevada": 4826,
      "festival": 4827,
      "premiums": 4828,
      "naz": 4829,
      "##inter": 4830,
      "admit": 4831,
      "showed": 4832,
      "govnewsroom": 4833,
      "sheriff": 4834,
      "pick": 4835,
      "##lom": 4836,
      "##apt": 4837,
      "disapp": 4838,
      "severe": 4839,
      "practices": 4840,
      "29": 4841,
      "trem": 4842,
      "##iling": 4843,
      "prime": 4844,
      "alarm": 4845,
      "##ewagen": 4846,
      "meals": 4847,
      "covid19": 4848,
      "markets": 4849,
      "radewagen": 4850,
      "journal": 4851,
      "code": 4852,
      "swe": 4853,
      "util": 4854,
      "dear": 4855,
      "clearly": 4856,
      "leftist": 4857,
      "strongly": 4858,
      "pa17": 4859,
      "walorski": 4860,
      "model": 4861,
      "obama": 4862,
      "ia04": 4863,
      "january6thcmte": 4864,
      "outrageous": 4865,
      "por": 4866,
      "##iency": 4867,
      "##itation": 4868,
      "##ager": 4869,
      "communism": 4870,
      "disinformation": 4871,
      "neverforget": 4872,
      "banks": 4873,
      "recognizing": 4874,
      "authoritarian": 4875,
      "wwii": 4876,
      "google": 4877,
      "dip": 4878,
      "ec": 4879,
      "vl": 4880,
      "##onav": 4881,
      "##enue": 4882,
      "##ends": 4883,
      "adop": 4884,
      "##affairs": 4885,
      "forms": 4886,
      "educators": 4887,
      "600": 4888,
      "##atures": 4889,
      "##aph": 4890,
      "##keyp": 4891,
      "joint": 4892,
      "intel": 4893,
      "ensures": 4894,
      "overdose": 4895,
      "minority": 4896,
      "article": 4897,
      "##may": 4898,
      "wear": 4899,
      "standards": 4900,
      "minutes": 4901,
      "correct": 4902,
      "matters": 4903,
      "illness": 4904,
      "champions": 4905,
      "hispanicheritagemonth": 4906,
      "multiple": 4907,
      "catastrop": 4908,
      "ket": 4909,
      "##canc": 4910,
      "##gas": 4911,
      "##tz": 4912,
      "##arily": 4913,
      "##iced": 4914,
      "##opol": 4915,
      "canada": 4916,
      "branch": 4917,
      "##log": 4918,
      "##erally": 4919,
      "senators": 4920,
      "washingt": 4921,
      "##affir": 4922,
      "latin": 4923,
      "solar": 4924,
      "toured": 4925,
      "tirelessly": 4926,
      "nasa": 4927,
      "ale": 4928,
      "mas": 4929,
      "##kin": 4930,
      "##oric": 4931,
      "supplies": 4932,
      "female": 4933,
      "michael": 4934,
      "operation": 4935,
      "negoti": 4936,
      "began": 4937,
      "ambass": 4938,
      "##hm": 4939,
      "##eday": 4940,
      "##embr": 4941,
      "soft": 4942,
      "countrys": 4943,
      "intent": 4944,
      "creation": 4945,
      "247": 4946,
      "limited": 4947,
      "axios": 4948,
      "african": 4949,
      "##keypox": 4950,
      "reaffir": 4951,
      "##tered": 4952,
      "houston": 4953,
      "threatening": 4954,
      "urgent": 4955,
      "leaving": 4956,
      "appe": 4957,
      "drop": 4958,
      "mayorkas": 4959,
      "##aham": 4960,
      "##while": 4961,
      "babies": 4962,
      "resilience": 4963,
      "jeff": 4964,
      "germany": 4965,
      "professionals": 4966,
      "##onavir": 4967,
      "ais": 4968,
      "tur": 4969,
      "##aded": 4970,
      "mont": 4971,
      "illegally": 4972,
      "expanded": 4973,
      "ownership": 4974,
      "nomin": 4975,
      "resilient": 4976,
      "declar": 4977,
      "gratitude": 4978,
      "gopleader": 4979,
      "bom": 4980,
      "vets": 4981,
      "##oration": 4982,
      "belie": 4983,
      "advocating": 4984,
      "chicago": 4985,
      "fauc": 4986,
      "obl": 4987,
      "##dom": 4988,
      "constant": 4989,
      "##esty": 4990,
      "cruel": 4991,
      "meant": 4992,
      "imperial": 4993,
      "brings": 4994,
      "waters": 4995,
      "##issipp": 4996,
      "belong": 4997,
      "compete": 4998,
      "answered": 4999,
      "vehicle": 5000,
      "tribal": 5001,
      "shameful": 5002,
      "conflict": 5003,
      "comr": 5004,
      "##usa": 5005,
      "exerc": 5006,
      "upgr": 5007,
      "compol": 5008,
      "##commun": 5009,
      "mississipp": 5010,
      "sacred": 5011,
      "sacrific": 5012,
      "lifeline": 5013,
      "politico": 5014,
      "element": 5015,
      "podcast": 5016,
      "sar": 5017,
      "##po": 5018,
      "##per": 5019,
      "##fa": 5020,
      "reuters": 5021,
      "##chool": 5022,
      "org20220": 5023,
      "double": 5024,
      "kentucky": 5025,
      "kept": 5026,
      "infant": 5027,
      "##ibution": 5028,
      "decre": 5029,
      "remark": 5030,
      "promised": 5031,
      "finding": 5032,
      "losing": 5033,
      "music": 5034,
      "louisiana": 5035,
      "spring": 5036,
      "appointment": 5037,
      "tyrann": 5038,
      "zelens": 5039,
      "vlad": 5040,
      "document": 5041,
      "filled": 5042,
      "ram": 5043,
      "##each": 5044,
      "##uz": 5045,
      "thread": 5046,
      "##ilar": 5047,
      "##aminer": 5048,
      "##anda": 5049,
      "disasters": 5050,
      "club": 5051,
      "appear": 5052,
      "preventing": 5053,
      "suprem": 5054,
      "barre": 5055,
      "innovative": 5056,
      "regardless": 5057,
      "bodies": 5058,
      "minnesota": 5059,
      "##bone": 5060,
      "##fire": 5061,
      "##ouses": 5062,
      "faced": 5063,
      "improvements": 5064,
      "harmful": 5065,
      "##bby": 5066,
      "purpose": 5067,
      "ath": 5068,
      "mine": 5069,
      "ped": 5070,
      "##oo": 5071,
      "##stat": 5072,
      "train": 5073,
      "##ection": 5074,
      "reserves": 5075,
      "raised": 5076,
      "welcoming": 5077,
      "saudi": 5078,
      "ketanj": 5079,
      "39": 5080,
      "44": 5081,
      "##kans": 5082,
      "##eration": 5083,
      "##idency": 5084,
      "##licit": 5085,
      "monkeypox": 5086,
      "causing": 5087,
      "guy": 5088,
      "surge": 5089,
      "requires": 5090,
      "inspiring": 5091,
      "industries": 5092,
      "pregnancy": 5093,
      "particularly": 5094,
      "78": 5095,
      "ben": 5096,
      "##icious": 5097,
      "##imir": 5098,
      "##ulate": 5099,
      "repair": 5100,
      "unity": 5101,
      "houses": 5102,
      "himself": 5103,
      "estim": 5104,
      "explain": 5105,
      "bloom": 5106,
      "commemorate": 5107,
      "ranchers": 5108,
      "intelligence": 5109,
      "diplom": 5110,
      "aisle": 5111,
      "26": 5112,
      "obt": 5113,
      "##iest": 5114,
      "##atever": 5115,
      "2019": 5116,
      "backbone": 5117,
      "parent": 5118,
      "interns": 5119,
      "texans": 5120,
      "postal": 5121,
      "slavery": 5122,
      "shooter": 5123,
      "pressure": 5124,
      "paycheck": 5125,
      "original": 5126,
      "technologies": 5127,
      "mach": 5128,
      "sor": 5129,
      "decided": 5130,
      "##ounters": 5131,
      "encounters": 5132,
      "activists": 5133,
      "ice": 5134,
      "nu": 5135,
      "source": 5136,
      "wide": 5137,
      "##eople": 5138,
      "##ports": 5139,
      "##know": 5140,
      "stood": 5141,
      "arab": 5142,
      "arms": 5143,
      "restaur": 5144,
      "meth": 5145,
      "advancing": 5146,
      "accepting": 5147,
      "##johnson": 5148,
      "prosecut": 5149,
      "vladimir": 5150,
      "max": 5151,
      "search": 5152,
      "vs": 5153,
      "##war": 5154,
      "##asons": 5155,
      "sunday": 5156,
      "unl": 5157,
      "households": 5158,
      "language": 5159,
      "rosh": 5160,
      "whatever": 5161,
      "seat": 5162,
      "disrupt": 5163,
      "educational": 5164,
      "citizenship": 5165,
      "seriously": 5166,
      "hospitals": 5167,
      "##bill": 5168,
      "##xaminer": 5169,
      "reop": 5170,
      "tribute": 5171,
      "##gry": 5172,
      "protests": 5173,
      "location": 5174,
      "monthly": 5175,
      "resiliency": 5176,
      "ignore": 5177,
      "oklah": 5178,
      "##student": 5179,
      "pretty": 5180,
      "temporary": 5181,
      "attorney": 5182,
      "unique": 5183,
      "tremendous": 5184,
      "ky": 5185,
      "##eless": 5186,
      "alz": 5187,
      "impeach": 5188,
      "uplif": 5189,
      "compass": 5190,
      "desantis": 5191,
      "childrens": 5192,
      "##ippur": 5193,
      "attempts": 5194,
      "##justice": 5195,
      "blood": 5196,
      "existing": 5197,
      "overwhelming": 5198,
      "entrepreneurs": 5199,
      "dak": 5200,
      "dod": 5201,
      "##hum": 5202,
      "tough": 5203,
      "##vert": 5204,
      "##imately": 5205,
      "cha": 5206,
      "addiction": 5207,
      "prayer": 5208,
      "nurses": 5209,
      "custom": 5210,
      "exposure": 5211,
      "wv": 5212,
      "##more": 5213,
      "##iles": 5214,
      "##elly": 5215,
      "##istory": 5216,
      "span": 5217,
      "##oviet": 5218,
      "serves": 5219,
      "box": 5220,
      "exciting": 5221,
      "##ological": 5222,
      "conservation": 5223,
      "pushed": 5224,
      "eliminate": 5225,
      "##ring": 5226,
      "##ched": 5227,
      "separ": 5228,
      "cry": 5229,
      "ira": 5230,
      "employers": 5231,
      "hurricaneian": 5232,
      "european": 5233,
      "opposition": 5234,
      "maintain": 5235,
      "##onavirus": 5236,
      "##40": 5237,
      "reve": 5238,
      "stability": 5239,
      "beat": 5240,
      "altern": 5241,
      "uns": 5242,
      "unjust": 5243,
      "communic": 5244,
      "dropp": 5245,
      "medicaid": 5246,
      "northern": 5247,
      "##means": 5248,
      "industrial": 5249,
      "bern": 5250,
      "cp": 5251,
      "warm": 5252,
      "##national": 5253,
      "##well": 5254,
      "forest": 5255,
      "##aming": 5256,
      "shown": 5257,
      "servant": 5258,
      "winner": 5259,
      "meanwhile": 5260,
      "pactact": 5261,
      "angel": 5262,
      "lifesaving": 5263,
      "##cancer": 5264,
      "ketanji": 5265,
      "##lor": 5266,
      "##onom": 5267,
      "comv": 5268,
      "##imm": 5269,
      "##ulation": 5270,
      "repg": 5271,
      "door": 5272,
      "##epeople": 5273,
      "arts": 5274,
      "extremely": 5275,
      "telehealth": 5276,
      "murdered": 5277,
      "maternal": 5278,
      "core": 5279,
      "diverse": 5280,
      "##lf": 5281,
      "##80": 5282,
      "##ining": 5283,
      "soaring": 5284,
      "socialists": 5285,
      "##ysis": 5286,
      "propag": 5287,
      "appreciation": 5288,
      "enhance": 5289,
      "schedule": 5290,
      "hat": 5291,
      "hal": 5292,
      "rose": 5293,
      "spree": 5294,
      "presidency": 5295,
      "addition": 5296,
      "consid": 5297,
      "sites": 5298,
      "burd": 5299,
      "denied": 5300,
      "dreamers": 5301,
      "unfair": 5302,
      "physical": 5303,
      "corner": 5304,
      "##author": 5305,
      "sources": 5306,
      "##46": 5307,
      "##leader": 5308,
      "##iration": 5309,
      "##agn": 5310,
      "measure": 5311,
      "log": 5312,
      "banning": 5313,
      "subject": 5314,
      "lifetime": 5315,
      "object": 5316,
      "90": 5317,
      "james": 5318,
      "##ws": 5319,
      "##pd": 5320,
      "spot": 5321,
      "150": 5322,
      "employment": 5323,
      "epis": 5324,
      "collabor": 5325,
      "##donald": 5326,
      "tens": 5327,
      "##hal": 5328,
      "##ishop": 5329,
      "smart": 5330,
      "earning": 5331,
      "##heim": 5332,
      "liberals": 5333,
      "begins": 5334,
      "colorado": 5335,
      "hus": 5336,
      "sides": 5337,
      "##fund": 5338,
      "##ami": 5339,
      "##change": 5340,
      "leak": 5341,
      "cann": 5342,
      "parts": 5343,
      "##aved": 5344,
      "smugg": 5345,
      "febr": 5346,
      "##contact": 5347,
      "fauci": 5348,
      "zelensky": 5349,
      "squ": 5350,
      "##cott": 5351,
      "##esh": 5352,
      "##vet": 5353,
      "##away": 5354,
      "yours": 5355,
      "compl": 5356,
      "efficient": 5357,
      "fulf": 5358,
      "promoting": 5359,
      "cleaner": 5360,
      "injured": 5361,
      "57": 5362,
      "mort": 5363,
      "##county": 5364,
      "##idad": 5365,
      "##agon": 5366,
      "grid": 5367,
      "manch": 5368,
      "##ockets": 5369,
      "raid": 5370,
      "pursue": 5371,
      "elementary": 5372,
      "february": 5373,
      "55": 5374,
      "##gers": 5375,
      "ship": 5376,
      "repk": 5377,
      "ord": 5378,
      "drinking": 5379,
      "##conomy": 5380,
      "smith": 5381,
      "fuels": 5382,
      "literally": 5383,
      "cbsnews": 5384,
      "recommend": 5385,
      "remarkable": 5386,
      "compassion": 5387,
      "fit": 5388,
      "fant": 5389,
      "##mart": 5390,
      "##100": 5391,
      "chris": 5392,
      "acknow": 5393,
      "broke": 5394,
      "govdebt": 5395,
      "passion": 5396,
      "##brite": 5397,
      "worlds": 5398,
      "affairs": 5399,
      "consist": 5400,
      "subm": 5401,
      "confident": 5402,
      "##ointed": 5403,
      "billionaires": 5404,
      "ideology": 5405,
      "steel": 5406,
      "eventbrite": 5407,
      "popular": 5408,
      "clinic": 5409,
      "volunteers": 5410,
      "##wali": 5411,
      "foster": 5412,
      "der": 5413,
      "##aul": 5414,
      "##uk": 5415,
      "##elines": 5416,
      "trained": 5417,
      "##ecess": 5418,
      "##ounding": 5419,
      "firm": 5420,
      "excl": 5421,
      "waiting": 5422,
      "series": 5423,
      "negative": 5424,
      "martin": 5425,
      "2a": 5426,
      "bul": 5427,
      "lt": 5428,
      "##jud": 5429,
      "##ato": 5430,
      "##ague": 5431,
      "repbr": 5432,
      "lee": 5433,
      "##umer": 5434,
      "colon": 5435,
      "wins": 5436,
      "effectively": 5437,
      "equitable": 5438,
      "rhet": 5439,
      "##yer": 5440,
      "comworld": 5441,
      "chem": 5442,
      "##osing": 5443,
      "cripp": 5444,
      "sole": 5445,
      "refused": 5446,
      "headed": 5447,
      "appreciated": 5448,
      "replace": 5449,
      "agricultural": 5450,
      "courageous": 5451,
      "christmas": 5452,
      "fb": 5453,
      "paper": 5454,
      "tv": 5455,
      "##dp": 5456,
      "##east": 5457,
      "##bart": 5458,
      "alliance": 5459,
      "unpr": 5460,
      "passport": 5461,
      "keeps": 5462,
      "fl02": 5463,
      "##andscience": 5464,
      "utpol": 5465,
      "targeting": 5466,
      "primary": 5467,
      "washingtone": 5468,
      "cash": 5469,
      "##35": 5470,
      "##quality": 5471,
      "bear": 5472,
      "recre": 5473,
      "##ounded": 5474,
      "enshr": 5475,
      "planned": 5476,
      "phone": 5477,
      "creates": 5478,
      "victim": 5479,
      "globe": 5480,
      "experienced": 5481,
      "principles": 5482,
      "rx": 5483,
      "##istry": 5484,
      "flow": 5485,
      "waltz": 5486,
      "##resp": 5487,
      "autom": 5488,
      "practice": 5489,
      "qualify": 5490,
      "rapid": 5491,
      "sacrificed": 5492,
      "rhetoric": 5493,
      "soviet": 5494,
      "vers": 5495,
      "##pir": 5496,
      "##ading": 5497,
      "##agov": 5498,
      "closed": 5499,
      "root": 5500,
      "##prop": 5501,
      "##articles": 5502,
      "chipsandscience": 5503,
      "refugees": 5504,
      "forthepeople": 5505,
      "pockets": 5506,
      "comments": 5507,
      "##usting": 5508,
      "mexic": 5509,
      "competitive": 5510,
      "civilians": 5511,
      "##police": 5512,
      "complex": 5513,
      "confirmed": 5514,
      "pause": 5515,
      "rib": 5516,
      "##dy": 5517,
      "##iny": 5518,
      "##inions": 5519,
      "##ching": 5520,
      "asse": 5521,
      "shipping": 5522,
      "##abul": 5523,
      "workplace": 5524,
      "##2020": 5525,
      "clar": 5526,
      "outdo": 5527,
      "strip": 5528,
      "##enses": 5529,
      "196": 5530,
      "##holders": 5531,
      "deepest": 5532,
      "achie": 5533,
      "electricity": 5534,
      "designed": 5535,
      "confirm": 5536,
      "timely": 5537,
      "aids": 5538,
      "hi": 5539,
      "pit": 5540,
      "rod": 5541,
      "##history": 5542,
      "##rel": 5543,
      "worry": 5544,
      "rept": 5545,
      "##outs": 5546,
      "demands": 5547,
      "historical": 5548,
      "sales": 5549,
      "pharma": 5550,
      "imagine": 5551,
      "declaration": 5552,
      "##studentdebt": 5553,
      "burdens": 5554,
      "washingtonexaminer": 5555,
      "tn": 5556,
      "temp": 5557,
      "vet": 5558,
      "##aco": 5559,
      "exped": 5560,
      "coff": 5561,
      "flight": 5562,
      "threaten": 5563,
      "failures": 5564,
      "immigrant": 5565,
      "nutrition": 5566,
      "ambassador": 5567,
      "ol": 5568,
      "##list": 5569,
      "##hom": 5570,
      "##itbart": 5571,
      "stated": 5572,
      "##ables": 5573,
      "spect": 5574,
      "arkans": 5575,
      "draft": 5576,
      "highly": 5577,
      "belief": 5578,
      "terms": 5579,
      "comnews2022": 5580,
      "coronavirus": 5581,
      "joebiden": 5582,
      "judiciary": 5583,
      "understanding": 5584,
      "undermine": 5585,
      "eu": 5586,
      "kar": 5587,
      "unve": 5588,
      "schem": 5589,
      "ukrainians": 5590,
      "humanity": 5591,
      "bloomberg": 5592,
      "kid": 5593,
      "mention": 5594,
      "tape": 5595,
      "##water": 5596,
      "##tax": 5597,
      "##fall": 5598,
      "##inks": 5599,
      "commend": 5600,
      "##izer": 5601,
      "costing": 5602,
      "breitbart": 5603,
      "austral": 5604,
      "panel": 5605,
      "extraordin": 5606,
      "bottom": 5607,
      "missouri": 5608,
      "avi": 5609,
      "hbc": 5610,
      "##erately": 5611,
      "comrep": 5612,
      "crow": 5613,
      "##umn": 5614,
      "embr": 5615,
      "proven": 5616,
      "nature": 5617,
      "##useum": 5618,
      "obvious": 5619,
      "aliens": 5620,
      "dall": 5621,
      "ft": 5622,
      "pf": 5623,
      "sba": 5624,
      "##dav": 5625,
      "##ukrain": 5626,
      "chip": 5627,
      "preced": 5628,
      "monument": 5629,
      "##ogue": 5630,
      "starts": 5631,
      "install": 5632,
      "founding": 5633,
      "similar": 5634,
      "citizen": 5635,
      "telling": 5636,
      "corruption": 5637,
      "##respons": 5638,
      "narr": 5639,
      "##arians": 5640,
      "##etz": 5641,
      "atlant": 5642,
      "atroc": 5643,
      "shr": 5644,
      "apple": 5645,
      "##ressive": 5646,
      "perspect": 5647,
      "setting": 5648,
      "network": 5649,
      "felt": 5650,
      "giant": 5651,
      "pt": 5652,
      "##farm": 5653,
      "##za": 5654,
      "##icial": 5655,
      "input": 5656,
      "##adio": 5657,
      "##agan": 5658,
      "resident": 5659,
      "opposed": 5660,
      "breaks": 5661,
      "points": 5662,
      "ocean": 5663,
      "alex": 5664,
      "episode": 5665,
      "700": 5666,
      "ele": 5667,
      "len": 5668,
      "lay": 5669,
      "ru": 5670,
      "wil": 5671,
      "##ica": 5672,
      "crushing": 5673,
      "pled": 5674,
      "accel": 5675,
      "effici": 5676,
      "campus": 5677,
      "cancelstudentdebt": 5678,
      "clinton": 5679,
      "sponsored": 5680,
      "semiconductor": 5681,
      "overseas": 5682,
      "##bel": 5683,
      "##osen": 5684,
      "appar": 5685,
      "legit": 5686,
      "hearings": 5687,
      "##airy": 5688,
      "photo": 5689,
      "approval": 5690,
      "older": 5691,
      "initiatives": 5692,
      "dictators": 5693,
      "firearms": 5694,
      "##gen": 5695,
      "##ita": 5696,
      "amid": 5697,
      "proof": 5698,
      "disprop": 5699,
      "grab": 5700,
      "endanger": 5701,
      "opec": 5702,
      "delay": 5703,
      "lowest": 5704,
      "overdoses": 5705,
      "tragically": 5706,
      "punish": 5707,
      "williams": 5708,
      "destruction": 5709,
      "alzheim": 5710,
      "##uy": 5711,
      "##tv": 5712,
      "##acing": 5713,
      "##elle": 5714,
      "##abis": 5715,
      "heavy": 5716,
      "##owners": 5717,
      "##wards": 5718,
      "couldnt": 5719,
      "required": 5720,
      "landmark": 5721,
      "##aska": 5722,
      "johnson": 5723,
      "connected": 5724,
      "encouraged": 5725,
      "enhanc": 5726,
      "coalition": 5727,
      "reconcil": 5728,
      "considering": 5729,
      "##cor": 5730,
      "##hol": 5731,
      "##here": 5732,
      "##etts": 5733,
      "##igma": 5734,
      "##adel": 5735,
      "greatly": 5736,
      "childcare": 5737,
      "lying": 5738,
      "promises": 5739,
      "personnel": 5740,
      "greed": 5741,
      "mornings": 5742,
      "sadly": 5743,
      "autonom": 5744,
      "shelter": 5745,
      "wyoming": 5746,
      "resolve": 5747,
      "harassment": 5748,
      "athlet": 5749,
      "eg": 5750,
      "vac": 5751,
      "##wise": 5752,
      "##asury": 5753,
      "reph": 5754,
      "unn": 5755,
      "usn": 5756,
      "disag": 5757,
      "##pson": 5758,
      "guys": 5759,
      "territ": 5760,
      "updated": 5761,
      "judges": 5762,
      "ease": 5763,
      "gh": 5764,
      "hs": 5765,
      "oath": 5766,
      "wid": 5767,
      "##kids": 5768,
      "##iat": 5769,
      "##inn": 5770,
      "##rew": 5771,
      "comun": 5772,
      "##osis": 5773,
      "##ustr": 5774,
      "actual": 5775,
      "##ocracy": 5776,
      "hearts": 5777,
      "ended": 5778,
      "electoral": 5779,
      "owner": 5780,
      "irrespons": 5781,
      "opened": 5782,
      "garland": 5783,
      "guidance": 5784,
      "##aker": 5785,
      "lyn": 5786,
      "authorization": 5787,
      "presented": 5788,
      "austin": 5789,
      "ribbon": 5790,
      "lind": 5791,
      "rally": 5792,
      "##ida": 5793,
      "cher": 5794,
      "govcontact": 5795,
      "signs": 5796,
      "comnews20220": 5797,
      "fairness": 5798,
      "emergencies": 5799,
      "charl": 5800,
      "criminalize": 5801,
      "launched": 5802,
      "analysis": 5803,
      "reconciliation": 5804,
      "nancy": 5805,
      "pub": 5806,
      "brain": 5807,
      "perpet": 5808,
      "##wealth": 5809,
      "personally": 5810,
      "played": 5811,
      "devastated": 5812,
      "cultural": 5813,
      "amazon": 5814,
      "certainly": 5815,
      "occur": 5816,
      "hypocr": 5817,
      "cannabis": 5818,
      "vib": 5819,
      "wave": 5820,
      "##ette": 5821,
      "##owe": 5822,
      "##estr": 5823,
      "prob": 5824,
      "drivers": 5825,
      "energycommerce": 5826,
      "schol": 5827,
      "##army": 5828,
      "attacked": 5829,
      "instr": 5830,
      "virus": 5831,
      "basis": 5832,
      "participated": 5833,
      "apart": 5834,
      "unprov": 5835,
      "games": 5836,
      "kam": 5837,
      "kabul": 5838,
      "##arter": 5839,
      "reauthor": 5840,
      "##unt": 5841,
      "##agr": 5842,
      "##broken": 5843,
      "##icted": 5844,
      "boys": 5845,
      "issued": 5846,
      "prioritiz": 5847,
      "competit": 5848,
      "conservatives": 5849,
      "volunteer": 5850,
      "korea": 5851,
      "##liament": 5852,
      "##binar": 5853,
      "chapter": 5854,
      "extraordinary": 5855,
      "fif": 5856,
      "##rom": 5857,
      "##giving": 5858,
      "toler": 5859,
      "repp": 5860,
      "##adv": 5861,
      "seven": 5862,
      "informed": 5863,
      "appreh": 5864,
      "looph": 5865,
      "deputy": 5866,
      "sitting": 5867,
      "##caller": 5868,
      "hiring": 5869,
      "oak": 5870,
      "rout": 5871,
      "turning": 5872,
      "##aj": 5873,
      "##los": 5874,
      "##hash": 5875,
      "##fan": 5876,
      "##fir": 5877,
      "##zo": 5878,
      "comfort": 5879,
      "guess": 5880,
      "diwali": 5881,
      "dailycaller": 5882,
      "established": 5883,
      "robust": 5884,
      "incentiv": 5885,
      "suggest": 5886,
      "disproportion": 5887,
      "49": 5888,
      "zo": 5889,
      "whom": 5890,
      "havent": 5891,
      "coach": 5892,
      "anywhere": 5893,
      "readiness": 5894,
      "twe": 5895,
      "##inken": 5896,
      "refuses": 5897,
      "##ucker": 5898,
      "reporting": 5899,
      "treatments": 5900,
      "commonwealth": 5901,
      "closely": 5902,
      "credits": 5903,
      "regulatory": 5904,
      "##prof": 5905,
      "guarantee": 5906,
      "enrollment": 5907,
      "unprovoked": 5908,
      "##bus": 5909,
      "##aylor": 5910,
      "##though": 5911,
      "alleg": 5912,
      "haven": 5913,
      "abuses": 5914,
      "critic": 5915,
      "##oughly": 5916,
      "##nty": 5917,
      "indo": 5918,
      "##ounds": 5919,
      "capabilities": 5920,
      "developed": 5921,
      "revital": 5922,
      "powers": 5923,
      "daughter": 5924,
      "compolicy": 5925,
      "##ukraine": 5926,
      "ports": 5927,
      "##ding": 5928,
      "##part": 5929,
      "##39": 5930,
      "##iter": 5931,
      "reasons": 5932,
      "coms": 5933,
      "escal": 5934,
      "labour": 5935,
      "internship": 5936,
      "listening": 5937,
      "heading": 5938,
      "bureau": 5939,
      "eye": 5940,
      "controlled": 5941,
      "##rac": 5942,
      "##jan": 5943,
      "##ignty": 5944,
      "##ems": 5945,
      "##ung": 5946,
      "ash": 5947,
      "##conn": 5948,
      "expert": 5949,
      "decide": 5950,
      "faces": 5951,
      "##mike": 5952,
      "traum": 5953,
      "idaho": 5954,
      "breakfast": 5955,
      "overturning": 5956,
      "coastal": 5957,
      "##pete": 5958,
      "cuban": 5959,
      "motiv": 5960,
      "riot": 5961,
      "sovereignty": 5962,
      "assemb": 5963,
      "dallas": 5964,
      "ml": 5965,
      "##elect": 5966,
      "##yc": 5967,
      "##fox": 5968,
      "offering": 5969,
      "##roit": 5970,
      "robert": 5971,
      "scott": 5972,
      "##redit": 5973,
      "bob": 5974,
      "transfer": 5975,
      "representing": 5976,
      "harbor": 5977,
      "booster": 5978,
      "activity": 5979,
      "type": 5980,
      "jail": 5981,
      "although": 5982,
      "alloc": 5983,
      "overreach": 5984,
      "##istrict": 5985,
      "intim": 5986,
      "medication": 5987,
      "represents": 5988,
      "inspire": 5989,
      "inspiration": 5990,
      "keystone": 5991,
      "doubt": 5992,
      "##downs": 5993,
      "chemical": 5994,
      "##wr": 5995,
      "##vents": 5996,
      "##77": 5997,
      "##qual": 5998,
      "##anah": 5999,
      "##outh": 6000,
      "##omes": 6001,
      "##child": 6002,
      "repandy": 6003,
      "##aware": 6004,
      "##achus": 6005,
      "causes": 6006,
      "##comes": 6007,
      "charact": 6008,
      "##womens": 6009,
      "memorialday": 6010,
      "silence": 6011,
      "definition": 6012,
      "propaganda": 6013,
      "unnecess": 6014,
      "5th": 6015,
      "##fo": 6016,
      "##aly": 6017,
      "##ume": 6018,
      "uss": 6019,
      "##ourge": 6020,
      "wouldn": 6021,
      "socialsecurity": 6022,
      "locations": 6023,
      "supposed": 6024,
      "##loyd": 6025,
      "slow": 6026,
      "treated": 6027,
      "##ields": 6028,
      "shelves": 6029,
      "distur": 6030,
      "casework": 6031,
      "materials": 6032,
      "survey": 6033,
      "underserved": 6034,
      "coffee": 6035,
      "aviation": 6036,
      "math": 6037,
      "nh": 6038,
      "om": 6039,
      "yell": 6040,
      "##fed": 6041,
      "repch": 6042,
      "crush": 6043,
      "houseag": 6044,
      "canad": 6045,
      "accident": 6046,
      "inviting": 6047,
      "deserved": 6048,
      "intervention": 6049,
      "knowing": 6050,
      "otherwise": 6051,
      "accounts": 6052,
      "districts": 6053,
      "cityof": 6054,
      "heartbroken": 6055,
      "##shore": 6056,
      "groundbreaking": 6057,
      "achievement": 6058,
      "nevad": 6059,
      "wasteful": 6060,
      "irresponsible": 6061,
      "aim": 6062,
      "caught": 6063,
      "gonz": 6064,
      "##rum": 6065,
      "##ola": 6066,
      "stead": 6067,
      "sea": 6068,
      "trial": 6069,
      "compared": 6070,
      "memories": 6071,
      "termin": 6072,
      "deport": 6073,
      "radio": 6074,
      "encouraging": 6075,
      "universities": 6076,
      "migrant": 6077,
      "christian": 6078,
      "recruit": 6079,
      "chaos": 6080,
      "##achusetts": 6081,
      "58": 6082,
      "nice": 6083,
      "tun": 6084,
      "##nc": 6085,
      "##bbs": 6086,
      "##fw": 6087,
      "##38": 6088,
      "prol": 6089,
      "##otes": 6090,
      "##ular": 6091,
      "reliance": 6092,
      "edit": 6093,
      "genoc": 6094,
      "combined": 6095,
      "hoos": 6096,
      "intellect": 6097,
      "mississippi": 6098,
      "38": 6099,
      "dairy": 6100,
      "mah": 6101,
      "pul": 6102,
      "rain": 6103,
      "tree": 6104,
      "tips": 6105,
      "vast": 6106,
      "##nic": 6107,
      "##ka": 6108,
      "##mith": 6109,
      "##49": 6110,
      "##enry": 6111,
      "##opard": 6112,
      "##aug": 6113,
      "blat": 6114,
      "scam": 6115,
      "conspir": 6116,
      "banned": 6117,
      "vaccination": 6118,
      "heroic": 6119,
      "swed": 6120,
      "##blue": 6121,
      "utility": 6122,
      "suffered": 6123,
      "repeated": 6124,
      "covered": 6125,
      "trading": 6126,
      "renewable": 6127,
      "prisoners": 6128,
      "hatred": 6129,
      "hoosier": 6130,
      "cow": 6131,
      "da": 6132,
      "dur": 6133,
      "sant": 6134,
      "##aire": 6135,
      "##vable": 6136,
      "##cho": 6137,
      "##agle": 6138,
      "leads": 6139,
      "##avid": 6140,
      "raises": 6141,
      "massachusetts": 6142,
      "##works": 6143,
      "##phy": 6144,
      "civilian": 6145,
      "producing": 6146,
      "activist": 6147,
      "closing": 6148,
      "requesting": 6149,
      "affecting": 6150,
      "embold": 6151,
      "scientific": 6152,
      "arabia": 6153,
      "husband": 6154,
      "##vetaffairs": 6155,
      "blatant": 6156,
      "7th": 6157,
      "##set": 6158,
      "##public": 6159,
      "##gt": 6160,
      "kevin": 6161,
      "2018": 6162,
      "happiness": 6163,
      "edge": 6164,
      "risks": 6165,
      "steve": 6166,
      "crossing": 6167,
      "substances": 6168,
      "jeopard": 6169,
      "observing": 6170,
      "commissioner": 6171,
      "various": 6172,
      "reminded": 6173,
      "tyranny": 6174,
      "probably": 6175,
      "85": 6176,
      "sab": 6177,
      "##ria": 6178,
      "##45": 6179,
      "repste": 6180,
      "lobby": 6181,
      "meetings": 6182,
      "batt": 6183,
      "bureaucrats": 6184,
      "hawaii": 6185,
      "lakes": 6186,
      "oly": 6187,
      "pits": 6188,
      "##ront": 6189,
      "##mat": 6190,
      "revers": 6191,
      "##etown": 6192,
      "##illy": 6193,
      "##abled": 6194,
      "jose": 6195,
      "inflic": 6196,
      "dog": 6197,
      "content": 6198,
      "draw": 6199,
      "describ": 6200,
      "views": 6201,
      "payment": 6202,
      "confidence": 6203,
      "charging": 6204,
      "busy": 6205,
      "dakota": 6206,
      "intimid": 6207,
      "dy": 6208,
      "hub": 6209,
      "nov": 6210,
      "##nbc": 6211,
      "##mj": 6212,
      "comment": 6213,
      "alb": 6214,
      "shots": 6215,
      "doors": 6216,
      "imper": 6217,
      "appl": 6218,
      "driven": 6219,
      "honest": 6220,
      "scr": 6221,
      "inclusion": 6222,
      "wars": 6223,
      "finance": 6224,
      "quite": 6225,
      "iron": 6226,
      "extended": 6227,
      "teams": 6228,
      "medicine": 6229,
      "basically": 6230,
      "fewer": 6231,
      "lgbtqi": 6232,
      "cancellation": 6233,
      "neighborhoods": 6234,
      "homelessness": 6235,
      "defeat": 6236,
      "##davis": 6237,
      "zoom": 6238,
      "59": 6239,
      "fake": 6240,
      "gut": 6241,
      "loud": 6242,
      "##gl": 6243,
      "forum": 6244,
      "##olen": 6245,
      "lived": 6246,
      "disgr": 6247,
      "compens": 6248,
      "economics": 6249,
      "monopol": 6250,
      "##2021": 6251,
      "affir": 6252,
      "parliament": 6253,
      "representation": 6254,
      "founder": 6255,
      "sanction": 6256,
      "oversightdems": 6257,
      "kingdom": 6258,
      "pregnant": 6259,
      "lucky": 6260,
      "candidate": 6261,
      "arrested": 6262,
      "olymp": 6263,
      "36": 6264,
      "46": 6265,
      "68": 6266,
      "mic": 6267,
      "pict": 6268,
      "##31": 6269,
      "##itt": 6270,
      "reaching": 6271,
      "##ando": 6272,
      "housecommerce": 6273,
      "##encia": 6274,
      "inside": 6275,
      "couldn": 6276,
      "matt": 6277,
      "floridians": 6278,
      "offered": 6279,
      "empowering": 6280,
      "##embrance": 6281,
      "bed": 6282,
      "hiv": 6283,
      "##big": 6284,
      "##aled": 6285,
      "gran": 6286,
      "offshore": 6287,
      "butter": 6288,
      "assass": 6289,
      "realize": 6290,
      "deploy": 6291,
      "attacking": 6292,
      "comeconomy": 6293,
      "choices": 6294,
      "fueled": 6295,
      "considered": 6296,
      "korean": 6297,
      "enemies": 6298,
      "precedent": 6299,
      "ber": 6300,
      "bishop": 6301,
      "gay": 6302,
      "##ora": 6303,
      "##isd": 6304,
      "##olf": 6305,
      "plain": 6306,
      "careers": 6307,
      "wouldnt": 6308,
      "remembrance": 6309,
      "##tech": 6310,
      "becomes": 6311,
      "homeowners": 6312,
      "futures": 6313,
      "symb": 6314,
      "lowers": 6315,
      "traveling": 6316,
      "extremists": 6317,
      "multi": 6318,
      "collective": 6319,
      "destroying": 6320,
      "divide": 6321,
      "autonomy": 6322,
      "48": 6323,
      "bost": 6324,
      "rip": 6325,
      "##nation": 6326,
      "##pass": 6327,
      "##time": 6328,
      "##imony": 6329,
      "wors": 6330,
      "exchange": 6331,
      "aggress": 6332,
      "arch": 6333,
      "export": 6334,
      "honors": 6335,
      "distribution": 6336,
      "talent": 6337,
      "artwork": 6338,
      "traffic": 6339,
      "baseball": 6340,
      "##mayorkas": 6341,
      "symbol": 6342,
      "jump": 6343,
      "pil": 6344,
      "rush": 6345,
      "##trump": 6346,
      "resign": 6347,
      "fired": 6348,
      "throw": 6349,
      "parade": 6350,
      "permit": 6351,
      "elon": 6352,
      "concer": 6353,
      "organized": 6354,
      "11th": 6355,
      "dependence": 6356,
      "requirements": 6357,
      "vermon": 6358,
      "cybersecurity": 6359,
      "briefing": 6360,
      "platform": 6361,
      "uplift": 6362,
      "##historymonth": 6363,
      "atrocities": 6364,
      "usnavy": 6365,
      "unnecessary": 6366,
      "250": 6367,
      "hike": 6368,
      "hikes": 6369,
      "museum": 6370,
      "##mail": 6371,
      "stolen": 6372,
      "chinas": 6373,
      "sham": 6374,
      "##tract": 6375,
      "outcomes": 6376,
      "marsh": 6377,
      "backs": 6378,
      "scale": 6379,
      "##orris": 6380,
      "##article": 6381,
      "activities": 6382,
      "traffick": 6383,
      "display": 6384,
      "manchin": 6385,
      "orders": 6386,
      "ay": 6387,
      "##icks": 6388,
      "##iona": 6389,
      "entry": 6390,
      "##agg": 6391,
      "##ressed": 6392,
      "##hips": 6393,
      "colleges": 6394,
      "beloved": 6395,
      "republicanleader": 6396,
      "towns": 6397,
      "##blaz": 6398,
      "experiences": 6399,
      "specific": 6400,
      "kamala": 6401,
      "aap": 6402,
      "faster": 6403,
      "rating": 6404,
      "##ple": 6405,
      "##yan": 6406,
      "##bling": 6407,
      "repc": 6408,
      "hey": 6409,
      "doz": 6410,
      "supporters": 6411,
      "assets": 6412,
      "inclusive": 6413,
      "perm": 6414,
      "talks": 6415,
      "##worth": 6416,
      "founded": 6417,
      "##posts": 6418,
      "50th": 6419,
      "attempted": 6420,
      "returned": 6421,
      "secretarypete": 6422,
      "wishes": 6423,
      "option": 6424,
      "qualified": 6425,
      "journey": 6426,
      "surprise": 6427,
      "subsidies": 6428,
      "incompet": 6429,
      "oklahoma": 6430,
      "53": 6431,
      "rt": 6432,
      "tact": 6433,
      "tired": 6434,
      "##mm": 6435,
      "whe": 6436,
      "##isters": 6437,
      "##osc": 6438,
      "shock": 6439,
      "exam": 6440,
      "##ifically": 6441,
      "cold": 6442,
      "##elling": 6443,
      "ly2": 6444,
      "talented": 6445,
      "retail": 6446,
      "threatens": 6447,
      "written": 6448,
      "organize": 6449,
      "topic": 6450,
      "##resources": 6451,
      "yorkers": 6452,
      "relations": 6453,
      "permanently": 6454,
      "evacu": 6455,
      "excellent": 6456,
      "alternative": 6457,
      "fantastic": 6458,
      "spectrum": 6459,
      "vibrant": 6460,
      "65": 6461,
      "77": 6462,
      "ks": 6463,
      "lights": 6464,
      "mut": 6465,
      "##credit": 6466,
      "##99": 6467,
      "##atically": 6468,
      "##stream": 6469,
      "onto": 6470,
      "##abin": 6471,
      "abr": 6472,
      "disg": 6473,
      "expense": 6474,
      "governance": 6475,
      "adding": 6476,
      "boy": 6477,
      "threatened": 6478,
      "requests": 6479,
      "claimed": 6480,
      "masks": 6481,
      "character": 6482,
      "disgrace": 6483,
      "divid": 6484,
      "file": 6485,
      "##eff": 6486,
      "##can": 6487,
      "##mall": 6488,
      "##ona": 6489,
      "##ati": 6490,
      "stuff": 6491,
      "actively": 6492,
      "una": 6493,
      "diss": 6494,
      "dispar": 6495,
      "brothers": 6496,
      "valuable": 6497,
      "historically": 6498,
      "slash": 6499,
      "desperate": 6500,
      "nonprof": 6501,
      "identify": 6502,
      "preparedness": 6503,
      "palest": 6504,
      "candidates": 6505,
      "barrels": 6506,
      "estimated": 6507,
      "assembly": 6508,
      "breat": 6509,
      "pell": 6510,
      "##tm": 6511,
      "##mill": 6512,
      "##ered": 6513,
      "insecurity": 6514,
      "##start": 6515,
      "stores": 6516,
      "##acerb": 6517,
      "##graph": 6518,
      "##abil": 6519,
      "unless": 6520,
      "dobbs": 6521,
      "impose": 6522,
      "offers": 6523,
      "overall": 6524,
      "invests": 6525,
      "worldwide": 6526,
      "knowledge": 6527,
      "##angers": 6528,
      "deli": 6529,
      "developing": 6530,
      "falling": 6531,
      "dictator": 6532,
      "abandoned": 6533,
      "mexican": 6534,
      "cs": 6535,
      "nic": 6536,
      "vig": 6537,
      "##ev": 6538,
      "##lers": 6539,
      "##lud": 6540,
      "##gree": 6541,
      "##66": 6542,
      "##enty": 6543,
      "##lets": 6544,
      "##iment": 6545,
      "spaces": 6546,
      "##congr": 6547,
      "##ianas": 6548,
      "economies": 6549,
      "scen": 6550,
      "thanksgiving": 6551,
      "washingtontimes": 6552,
      "##strong": 6553,
      "compoliticsbiden": 6554,
      "californians": 6555,
      "nomine": 6556,
      "regular": 6557,
      "repjim": 6558,
      "kansans": 6559,
      "monitor": 6560,
      "dismant": 6561,
      "##first": 6562,
      "disproportionately": 6563,
      "bc": 6564,
      "jenn": 6565,
      "mt": 6566,
      "nord": 6567,
      "none": 6568,
      "vill": 6569,
      "##edit": 6570,
      "##isa": 6571,
      "##uries": 6572,
      "##istance": 6573,
      "degree": 6574,
      "##arters": 6575,
      "exacerb": 6576,
      "grace": 6577,
      "servants": 6578,
      "##ption": 6579,
      "blind": 6580,
      "blocking": 6581,
      "fl05": 6582,
      "friendly": 6583,
      "bankr": 6584,
      "detroit": 6585,
      "filing": 6586,
      "participating": 6587,
      "naval": 6588,
      "##workers": 6589,
      "regulation": 6590,
      "##barr": 6591,
      "urged": 6592,
      "britt": 6593,
      "dropped": 6594,
      "scheme": 6595,
      "genocide": 6596,
      "fel": 6597,
      "moved": 6598,
      "size": 6599,
      "##coun": 6600,
      "##yard": 6601,
      "##hon": 6602,
      "##63": 6603,
      "stor": 6604,
      "##anders": 6605,
      "repay": 6606,
      "spouses": 6607,
      "newly": 6608,
      "disorder": 6609,
      "plus": 6610,
      "highs": 6611,
      "restoration": 6612,
      "diagn": 6613,
      "medications": 6614,
      "dealing": 6615,
      "testimony": 6616,
      "increasingly": 6617,
      "preparing": 6618,
      "##maria": 6619,
      "pursuit": 6620,
      "flex": 6621,
      "nursing": 6622,
      "exceptional": 6623,
      "exercise": 6624,
      "fert": 6625,
      "hang": 6626,
      "range": 6627,
      "injustice": 6628,
      "reward": 6629,
      "concept": 6630,
      "chose": 6631,
      "##ervice": 6632,
      "secmayorkas": 6633,
      "strikes": 6634,
      "fires": 6635,
      "coord": 6636,
      "19th": 6637,
      "standwith": 6638,
      "benefici": 6639,
      "interesting": 6640,
      "amendments": 6641,
      "liberties": 6642,
      "division": 6643,
      "religion": 6644,
      "scorecard": 6645,
      "figure": 6646,
      "hudson": 6647,
      "paso": 6648,
      "catastrophic": 6649,
      "submissions": 6650,
      "##adelph": 6651,
      "morningsmaria": 6652,
      "intellectual": 6653,
      "32": 6654,
      "eid": 6655,
      "kenn": 6656,
      "mour": 6657,
      "##pat": 6658,
      "##ystem": 6659,
      "##bott": 6660,
      "##ho": 6661,
      "islands": 6662,
      "##owers": 6663,
      "##chall": 6664,
      "ages": 6665,
      "30pm": 6666,
      "navigate": 6667,
      "richard": 6668,
      "beaches": 6669,
      "05": 6670,
      "jones": 6671,
      "##onents": 6672,
      "##arth": 6673,
      "##emy": 6674,
      "alive": 6675,
      "haz": 6676,
      "fred": 6677,
      "wasnt": 6678,
      "resc": 6679,
      "delaware": 6680,
      "artists": 6681,
      "necessities": 6682,
      "modernize": 6683,
      "az01": 6684,
      "precious": 6685,
      "surrounding": 6686,
      "advisory": 6687,
      "##fanik": 6688,
      "bon": 6689,
      "dow": 6690,
      "dies": 6691,
      "eight": 6692,
      "pose": 6693,
      "ties": 6694,
      "taught": 6695,
      "wounded": 6696,
      "##equ": 6697,
      "##but": 6698,
      "shap": 6699,
      "repf": 6700,
      "accur": 6701,
      "interf": 6702,
      "carter": 6703,
      "refer": 6704,
      "##parks": 6705,
      "requiring": 6706,
      "laborday": 6707,
      "halls": 6708,
      "bravely": 6709,
      "revolutionary": 6710,
      "ridic": 6711,
      "8th": 6712,
      "pill": 6713,
      "pear": 6714,
      "##high": 6715,
      "##fts": 6716,
      "##icing": 6717,
      "##entagon": 6718,
      "fresh": 6719,
      "soil": 6720,
      "comprom": 6721,
      "advice": 6722,
      "##ahah": 6723,
      "employee": 6724,
      "falls": 6725,
      "declared": 6726,
      "determined": 6727,
      "identity": 6728,
      "uscg": 6729,
      "trailblaz": 6730,
      "scholars": 6731,
      "map": 6732,
      "sort": 6733,
      "##ihood": 6734,
      "##bec": 6735,
      "##48": 6736,
      "isol": 6737,
      "usmc": 6738,
      "imposs": 6739,
      "##ictions": 6740,
      "emma": 6741,
      "milest": 6742,
      "laid": 6743,
      "writing": 6744,
      "granted": 6745,
      "returns": 6746,
      "deny": 6747,
      "luther": 6748,
      "determination": 6749,
      "ranking": 6750,
      "##bitr": 6751,
      "nazi": 6752,
      "perspective": 6753,
      "athletes": 6754,
      "delivery": 6755,
      "ridicul": 6756,
      "buses": 6757,
      "os": 6758,
      "rand": 6759,
      "##dt": 6760,
      "##ck": 6761,
      "##rence": 6762,
      "##met": 6763,
      "##xy": 6764,
      "##intern": 6765,
      "##artz": 6766,
      "usf": 6767,
      "##orship": 6768,
      "confront": 6769,
      "proced": 6770,
      "northwest": 6771,
      "northeast": 6772,
      "fueling": 6773,
      "tourism": 6774,
      "fixed": 6775,
      "achievements": 6776,
      "function": 6777,
      "charged": 6778,
      "displayed": 6779,
      "exploitation": 6780,
      "british": 6781,
      "columbus": 6782,
      "3rd": 6783,
      "laugh": 6784,
      "##cape": 6785,
      "##burn": 6786,
      "##anes": 6787,
      "##ima": 6788,
      "suff": 6789,
      "subr": 6790,
      "commerc": 6791,
      "aca": 6792,
      "brand": 6793,
      "womans": 6794,
      "letting": 6795,
      "childhood": 6796,
      "assess": 6797,
      "delays": 6798,
      "miles": 6799,
      "comnewsarticles": 6800,
      "mineral": 6801,
      "townhall": 6802,
      "maine": 6803,
      "sometimes": 6804,
      "virginians": 6805,
      "trillions": 6806,
      "entering": 6807,
      "teaching": 6808,
      "acknowledge": 6809,
      "lenin": 6810,
      "disagree": 6811,
      "43": 6812,
      "47": 6813,
      "fat": 6814,
      "ric": 6815,
      "rape": 6816,
      "##eing": 6817,
      "##pg": 6818,
      "##mpt": 6819,
      "##inson": 6820,
      "acting": 6821,
      "notice": 6822,
      "newest": 6823,
      "govposts": 6824,
      "inflationary": 6825,
      "openly": 6826,
      "patient": 6827,
      "heads": 6828,
      "contribute": 6829,
      "enacted": 6830,
      "pslf": 6831,
      "##erbai": 6832,
      "mountain": 6833,
      "stakeholders": 6834,
      "abolish": 6835,
      "alzheimers": 6836,
      "mitch": 6837,
      "sale": 6838,
      "##s1": 6839,
      "##hen": 6840,
      "##jack": 6841,
      "##fuel": 6842,
      "repgreg": 6843,
      "##ordan": 6844,
      "arg": 6845,
      "syn": 6846,
      "politically": 6847,
      "midter": 6848,
      "sky": 6849,
      "hometown": 6850,
      "organizing": 6851,
      "wondering": 6852,
      "desperately": 6853,
      "##laim": 6854,
      "extremism": 6855,
      "ignored": 6856,
      "##climate": 6857,
      "azerbai": 6858,
      "prosperous": 6859,
      "rhode": 6860,
      "royal": 6861,
      "japanese": 6862,
      "sanders": 6863,
      "animals": 6864,
      "balance": 6865,
      "##adelphia": 6866,
      "commercial": 6867,
      "bow": 6868,
      "cz": 6869,
      "cents": 6870,
      "ment": 6871,
      "oc": 6872,
      "rot": 6873,
      "##lan": 6874,
      "##milit": 6875,
      "##0s": 6876,
      "##infr": 6877,
      "theft": 6878,
      "toll": 6879,
      "##chan": 6880,
      "liz": 6881,
      "league": 6882,
      "##tribune": 6883,
      "abund": 6884,
      "heating": 6885,
      "disability": 6886,
      "##enced": 6887,
      "lasting": 6888,
      "195": 6889,
      "##comed": 6890,
      "feet": 6891,
      "winners": 6892,
      "markup": 6893,
      "##gins": 6894,
      "awards": 6895,
      "specifically": 6896,
      "accomplishments": 6897,
      "hhsgov": 6898,
      "din": 6899,
      "tu": 6900,
      "tank": 6901,
      "##case": 6902,
      "##ario": 6903,
      "##ura": 6904,
      "stigma": 6905,
      "sud": 6906,
      "refusing": 6907,
      "##foreign": 6908,
      "##apprec": 6909,
      "##anna": 6910,
      "horrible": 6911,
      "highlighting": 6912,
      "paychecks": 6913,
      "ecos": 6914,
      "crypt": 6915,
      "arkansas": 6916,
      "atlanta": 6917,
      "concerning": 6918,
      "mourning": 6919,
      "subred": 6920,
      "kippur": 6921,
      "pour": 6922,
      "rat": 6923,
      "rum": 6924,
      "##cer": 6925,
      "##vacc": 6926,
      "##bg": 6927,
      "##org": 6928,
      "##orse": 6929,
      "##unk": 6930,
      "shall": 6931,
      "leaves": 6932,
      "violation": 6933,
      "empire": 6934,
      "waiver": 6935,
      "detection": 6936,
      "institute": 6937,
      "ignoring": 6938,
      "minds": 6939,
      "marxist": 6940,
      "##heart": 6941,
      "enemy": 6942,
      "obligation": 6943,
      "imperative": 6944,
      "vigil": 6945,
      "##challenge": 6946,
      "pentagon": 6947,
      "ray": 6948,
      "ros": 6949,
      "vax": 6950,
      "##cn": 6951,
      "##yw": 6952,
      "##bid": 6953,
      "##32": 6954,
      "##inger": 6955,
      "##usal": 6956,
      "aside": 6957,
      "repbo": 6958,
      "studies": 6959,
      "imports": 6960,
      "mostly": 6961,
      "infring": 6962,
      "com202205": 6963,
      "##ochul": 6964,
      "weakness": 6965,
      "dhsgov": 6966,
      "destroyed": 6967,
      "reaffirm": 6968,
      "sorry": 6969,
      "version": 6970,
      "disturbing": 6971,
      "hide": 6972,
      "nr": 6973,
      "roughly": 6974,
      "##oh": 6975,
      "##bed": 6976,
      "##ados": 6977,
      "aspect": 6978,
      "actors": 6979,
      "unable": 6980,
      "##apol": 6981,
      "meal": 6982,
      "preserving": 6983,
      "##roe": 6984,
      "backthe": 6985,
      "milk": 6986,
      "sympt": 6987,
      "risen": 6988,
      "aware": 6989,
      "write": 6990,
      "greg": 6991,
      "revenue": 6992,
      "dependent": 6993,
      "species": 6994,
      "fortun": 6995,
      "rebuilding": 6996,
      "storms": 6997,
      "physic": 6998,
      "dominance": 6999,
      "usdot": 7000,
      "latinos": 7001,
      "customers": 7002,
      "crippling": 7003,
      "competitiveness": 7004,
      "impossible": 7005,
      "backtheblue": 7006,
      "balt": 7007,
      "gard": 7008,
      "##ington": 7009,
      "##lee": 7010,
      "##akh": 7011,
      "livel": 7012,
      "meat": 7013,
      "senat": 7014,
      "email": 7015,
      "backed": 7016,
      "endless": 7017,
      "removed": 7018,
      "capping": 7019,
      "excess": 7020,
      "advocated": 7021,
      "welcomed": 7022,
      "heroism": 7023,
      "defended": 7024,
      "lgb": 7025,
      "unleashing": 7026,
      "arizonans": 7027,
      "declare": 7028,
      "implemented": 7029,
      "potentially": 7030,
      "tradition": 7031,
      "purple": 7032,
      "anarcho": 7033,
      "prohibit": 7034,
      "enshrine": 7035,
      "##acobs": 7036,
      "tweet": 7037,
      "beneficiaries": 7038,
      "bio": 7039,
      "dir": 7040,
      "gift": 7041,
      "taylor": 7042,
      "##ych": 7043,
      "##41": 7044,
      "tod": 7045,
      "##icut": 7046,
      "youve": 7047,
      "adams": 7048,
      "improvement": 7049,
      "processing": 7050,
      "successfully": 7051,
      "##govern": 7052,
      "academic": 7053,
      "engage": 7054,
      "produced": 7055,
      "2001": 7056,
      "poison": 7057,
      "involve": 7058,
      "proposals": 7059,
      "decrease": 7060,
      "reopen": 7061,
      "ridiculous": 7062,
      "##appreciation": 7063,
      "livelihood": 7064,
      "boss": 7065,
      "loving": 7066,
      "lots": 7067,
      "tan": 7068,
      "##ois": 7069,
      "##td": 7070,
      "##icip": 7071,
      "##ales": 7072,
      "##vering": 7073,
      "##uter": 7074,
      "alle": 7075,
      "##chamber": 7076,
      "fram": 7077,
      "usarmy": 7078,
      "stress": 7079,
      "nobody": 7080,
      "highland": 7081,
      "empt": 7082,
      "administrator": 7083,
      "delib": 7084,
      "feat": 7085,
      "##oversight": 7086,
      "refund": 7087,
      "humane": 7088,
      "pressing": 7089,
      "##annel": 7090,
      "attempting": 7091,
      "##republic": 7092,
      "argument": 7093,
      "alarming": 7094,
      "rodney": 7095,
      "cure": 7096,
      "eagle": 7097,
      "gotten": 7098,
      "gdp": 7099,
      "nf": 7100,
      "##tx": 7101,
      "##bal": 7102,
      "tov": 7103,
      "tova": 7104,
      "##alk": 7105,
      "franc": 7106,
      "drilling": 7107,
      "interior": 7108,
      "regimes": 7109,
      "underst": 7110,
      "##bted": 7111,
      "2024": 7112,
      "facilit": 7113,
      "fees": 7114,
      "classes": 7115,
      "reliefap": 7116,
      "excuse": 7117,
      "skilled": 7118,
      "legislature": 7119,
      "##break": 7120,
      "beauty": 7121,
      "iowans": 7122,
      "selling": 7123,
      "repbrian": 7124,
      "##agram": 7125,
      "41": 7126,
      "yrs": 7127,
      "##ius": 7128,
      "##bure": 7129,
      "##har": 7130,
      "##hab": 7131,
      "##09": 7132,
      "##era": 7133,
      "##urd": 7134,
      "##illa": 7135,
      "anton": 7136,
      "repjohn": 7137,
      "##ords": 7138,
      "hasc": 7139,
      "brad": 7140,
      "thanking": 7141,
      "2016": 7142,
      "guest": 7143,
      "hungry": 7144,
      "limits": 7145,
      "cheaper": 7146,
      "##ylum": 7147,
      "libertarians": 7148,
      "clinics": 7149,
      "enrich": 7150,
      "occup": 7151,
      "diego": 7152,
      "scientists": 7153,
      "palestin": 7154,
      "milestone": 7155,
      "lago": 7156,
      "mun": 7157,
      "wo": 7158,
      "##labor": 7159,
      "##62": 7160,
      "##qcaucus": 7161,
      "##ini": 7162,
      "##isy": 7163,
      "inqu": 7164,
      "##ocs": 7165,
      "##pper": 7166,
      "##char": 7167,
      "asylum": 7168,
      "repmike": 7169,
      "prove": 7170,
      "govlive": 7171,
      "healthier": 7172,
      "##herald": 7173,
      "appointed": 7174,
      "indic": 7175,
      "india": 7176,
      "taxation": 7177,
      "guide": 7178,
      "minute": 7179,
      "247th": 7180,
      "brook": 7181,
      "##lined": 7182,
      "institution": 7183,
      "normandy": 7184,
      "davis": 7185,
      "ultimately": 7186,
      "armenia": 7187,
      "performance": 7188,
      "negotiations": 7189,
      "obtain": 7190,
      "method": 7191,
      "zelenskyy": 7192,
      "##taxcredit": 7193,
      "brittney": 7194,
      "pearl": 7195,
      "fine": 7196,
      "mes": 7197,
      "pel": 7198,
      "pard": 7199,
      "rom": 7200,
      "rub": 7201,
      "##ien": 7202,
      "##fri": 7203,
      "##ze": 7204,
      "style": 7205,
      "stocks": 7206,
      "habit": 7207,
      "worried": 7208,
      "seized": 7209,
      "heav": 7210,
      "unwa": 7211,
      "note": 7212,
      "clock": 7213,
      "inval": 7214,
      "legend": 7215,
      "childtaxcredit": 7216,
      "##craft": 7217,
      "holds": 7218,
      "condition": 7219,
      "authorities": 7220,
      "##alez": 7221,
      "##blinken": 7222,
      "##incol": 7223,
      "connecting": 7224,
      "magaz": 7225,
      "highlights": 7226,
      "reduced": 7227,
      "provision": 7228,
      "schedul": 7229,
      "excellence": 7230,
      "doubled": 7231,
      "intentional": 7232,
      "downt": 7233,
      "framework": 7234,
      "unwavering": 7235,
      "99": 7236,
      "jur": 7237,
      "mel": 7238,
      "nih": 7239,
      "wer": 7240,
      "##vot": 7241,
      "##bes": 7242,
      "##erous": 7243,
      "##ito": 7244,
      "reagan": 7245,
      "prin": 7246,
      "##lyn": 7247,
      "alaska": 7248,
      "dean": 7249,
      "shit": 7250,
      "wasn": 7251,
      "houseforeign": 7252,
      "communists": 7253,
      "realdonald": 7254,
      "curb": 7255,
      "curious": 7256,
      "progressives": 7257,
      "english": 7258,
      "combatting": 7259,
      "conversations": 7260,
      "repdavid": 7261,
      "##front": 7262,
      "##burgh": 7263,
      "screen": 7264,
      "rampant": 7265,
      "burdensome": 7266,
      "ghost": 7267,
      "canadian": 7268,
      "ecosystem": 7269,
      "realdonaldtrump": 7270,
      "88": 7271,
      "ell": 7272,
      "gt": 7273,
      "jul": 7274,
      "kat": 7275,
      "nw": 7276,
      "names": 7277,
      "pak": 7278,
      "##uan": 7279,
      "##kins": 7280,
      "##haps": 7281,
      "##erry": 7282,
      "spur": 7283,
      "passeng": 7284,
      "robb": 7285,
      "delivers": 7286,
      "addressed": 7287,
      "remembering": 7288,
      "remembered": 7289,
      "massac": 7290,
      "engaged": 7291,
      "larger": 7292,
      "entirely": 7293,
      "##iffith": 7294,
      "arguments": 7295,
      "hoping": 7296,
      "snap": 7297,
      "monitoring": 7298,
      "govnewsroompress": 7299,
      "temper": 7300,
      "trauma": 7301,
      "motivated": 7302,
      "bankrupt": 7303,
      "lgbte": 7304,
      "band": 7305,
      "han": 7306,
      "ns": 7307,
      "pin": 7308,
      "##47": 7309,
      "##51": 7310,
      "##ingu": 7311,
      "comib": 7312,
      "##utch": 7313,
      "##amos": 7314,
      "neither": 7315,
      "20th": 7316,
      "2017": 7317,
      "thriving": 7318,
      "perhaps": 7319,
      "leftists": 7320,
      "##alsh": 7321,
      "retired": 7322,
      "##raid": 7323,
      "barbar": 7324,
      "##bean": 7325,
      "misinformation": 7326,
      "cycle": 7327,
      "requested": 7328,
      "miami": 7329,
      "overturned": 7330,
      "championship": 7331,
      "angeles": 7332,
      "recreation": 7333,
      "confirmation": 7334,
      "lgbteqcaucus": 7335,
      "bourge": 7336,
      "egreg": 7337,
      "nine": 7338,
      "sisters": 7339,
      "##nor": 7340,
      "##vw": 7341,
      "reim": 7342,
      "forests": 7343,
      "allied": 7344,
      "##acks": 7345,
      "secblinken": 7346,
      "##ensions": 7347,
      "educate": 7348,
      "topics": 7349,
      "connecticut": 7350,
      "tragedies": 7351,
      "traditional": 7352,
      "powell": 7353,
      "treasury": 7354,
      "com2022100": 7355,
      "philadelphia": 7356,
      "daughters": 7357,
      "transformative": 7358,
      "animal": 7359,
      "iraq": 7360,
      "apparently": 7361,
      "publish": 7362,
      "egregious": 7363,
      "bot": 7364,
      "fool": 7365,
      "##ware": 7366,
      "##radio": 7367,
      "##76": 7368,
      "##itious": 7369,
      "##iled": 7370,
      "stable": 7371,
      "teen": 7372,
      "afraid": 7373,
      "potuss": 7374,
      "stops": 7375,
      "##112": 7376,
      "connectivity": 7377,
      "advancement": 7378,
      "##casts1": 7379,
      "girl": 7380,
      "claiming": 7381,
      "##ronic": 7382,
      "##roadcasts1": 7383,
      "feminist": 7384,
      "roshhash": 7385,
      "pledge": 7386,
      "fertil": 7387,
      "comibroadcasts1": 7388,
      "##iab": 7389,
      "##gender": 7390,
      "##mod": 7391,
      "##alin": 7392,
      "stations": 7393,
      "entr": 7394,
      "shop": 7395,
      "plays": 7396,
      "passes": 7397,
      "careg": 7398,
      "emot": 7399,
      "removing": 7400,
      "##eney": 7401,
      "symp": 7402,
      "congratulate": 7403,
      "##eyer": 7404,
      "friendship": 7405,
      "struggles": 7406,
      "handle": 7407,
      "tells": 7408,
      "enterpr": 7409,
      "improved": 7410,
      "diseases": 7411,
      "##liest": 7412,
      "restaurant": 7413,
      "##judiciary": 7414,
      "barg": 7415,
      "eat": 7416,
      "halt": 7417,
      "ken": 7418,
      "lincol": 7419,
      "rivers": 7420,
      "sight": 7421,
      "##bud": 7422,
      "##mond": 7423,
      "##journ": 7424,
      "thinks": 7425,
      "##oline": 7426,
      "##otry": 7427,
      "##thew": 7428,
      "livest": 7429,
      "##connect": 7430,
      "secdef": 7431,
      "economists": 7432,
      "##elled": 7433,
      "extending": 7434,
      "capitalists": 7435,
      "label": 7436,
      "turns": 7437,
      "collection": 7438,
      "unconsc": 7439,
      "evacuation": 7440,
      "sovereign": 7441,
      "mitigate": 7442,
      "sweet": 7443,
      "nevadans": 7444,
      "inflicted": 7445,
      "##infrastructure": 7446,
      "cures": 7447,
      "fiona": 7448,
      "##year": 7449,
      "##ray": 7450,
      "##inf": 7451,
      "##idge": 7452,
      "comnew": 7453,
      "##acad": 7454,
      "chosen": 7455,
      "frustr": 7456,
      "usually": 7457,
      "hasnt": 7458,
      "manage": 7459,
      "##formed": 7460,
      "marking": 7461,
      "regions": 7462,
      "creek": 7463,
      "mining": 7464,
      "immun": 7465,
      "instagram": 7466,
      "##atorium": 7467,
      "floridas": 7468,
      "blessing": 7469,
      "survive": 7470,
      "canceling": 7471,
      "followed": 7472,
      "hillary": 7473,
      "pieces": 7474,
      "accomplished": 7475,
      "hotline": 7476,
      "football": 7477,
      "##green": 7478,
      "##defense": 7479,
      "eyes": 7480,
      "graduates": 7481,
      "swiftly": 7482,
      "pitts": 7483,
      "beliefs": 7484,
      "bourgeois": 7485,
      "na": 7486,
      "##del": 7487,
      "##cp": 7488,
      "##md": 7489,
      "##43": 7490,
      "##ils": 7491,
      "stim": 7492,
      "##thes": 7493,
      "section": 7494,
      "##ucking": 7495,
      "govcommit": 7496,
      "contest": 7497,
      "expands": 7498,
      "##erald": 7499,
      "frequ": 7500,
      "marines": 7501,
      "quarter": 7502,
      "extension": 7503,
      "##ertain": 7504,
      "10am": 7505,
      "usedgov": 7506,
      "registered": 7507,
      "gerry": 7508,
      "msnbc": 7509,
      "absolute": 7510,
      "##intend": 7511,
      "opposing": 7512,
      "##carter": 7513,
      "fascist": 7514,
      "couple": 7515,
      "dads": 7516,
      "trouble": 7517,
      "bernie": 7518,
      "conspiracy": 7519,
      "francis": 7520,
      "##bureau": 7521,
      "bic": 7522,
      "buck": 7523,
      "hills": 7524,
      "paw": 7525,
      "ted": 7526,
      "##42": 7527,
      "##fb": 7528,
      "inaction": 7529,
      "inaug": 7530,
      "##idep": 7531,
      "lease": 7532,
      "counting": 7533,
      "helpful": 7534,
      "therefore": 7535,
      "bigotry": 7536,
      "ministry": 7537,
      "classified": 7538,
      "resulted": 7539,
      "walking": 7540,
      "applying": 7541,
      "blessings": 7542,
      "##appchallenge": 7543,
      "easily": 7544,
      "significantly": 7545,
      "frontline": 7546,
      "subscrib": 7547,
      "eliminating": 7548,
      "charges": 7549,
      "audit": 7550,
      "mccarth": 7551,
      "circum": 7552,
      "prioritizing": 7553,
      "traffickers": 7554,
      "disgusting": 7555,
      "storage": 7556,
      "accurate": 7557,
      "empty": 7558,
      "downtown": 7559,
      "cd": 7560,
      "floyd": 7561,
      "gal": 7562,
      "##dog": 7563,
      "##bled": 7564,
      "##hq": 7565,
      "##anim": 7566,
      "##edy": 7567,
      "inher": 7568,
      "##ethe": 7569,
      "##ocon": 7570,
      "##istics": 7571,
      "lied": 7572,
      "housejudiciary": 7573,
      "sail": 7574,
      "admins": 7575,
      "caps": 7576,
      "waterways": 7577,
      "grew": 7578,
      "natl": 7579,
      "detail": 7580,
      "mainstream": 7581,
      "liter": 7582,
      "devastation": 7583,
      "magn": 7584,
      "##lifeline": 7585,
      "implementing": 7586,
      "musl": 7587,
      "madison": 7588,
      "superintend": 7589,
      "rolling": 7590,
      "cooperation": 7591,
      "butterfield": 7592,
      "fsc": 7593,
      "mir": 7594,
      "rank": 7595,
      "vent": 7596,
      "##ebert": 7597,
      "##erra": 7598,
      "##ila": 7599,
      "##acle": 7600,
      "worship": 7601,
      "tri": 7602,
      "hello": 7603,
      "##ibr": 7604,
      "##ifies": 7605,
      "overcome": 7606,
      "cook": 7607,
      "entit": 7608,
      "##upid": 7609,
      "technical": 7610,
      "##banks": 7611,
      "fastest": 7612,
      "philos": 7613,
      "antisemitic": 7614,
      "hyde": 7615,
      "commander": 7616,
      "australia": 7617,
      "narrative": 7618,
      "hypocrisy": 7619,
      "symptoms": 7620,
      "roshhashanah": 7621,
      "cops": 7622,
      "jam": 7623,
      "##mur": 7624,
      "##iones": 7625,
      "##olly": 7626,
      "##otos": 7627,
      "##acement": 7628,
      "unre": 7629,
      "gross": 7630,
      "brian": 7631,
      "index": 7632,
      "preview": 7633,
      "miller": 7634,
      "immense": 7635,
      "airports": 7636,
      "choosing": 7637,
      "staffers": 7638,
      "californias": 7639,
      "engagement": 7640,
      "232": 7641,
      "queens": 7642,
      "crossed": 7643,
      "cheap": 7644,
      "fy22": 7645,
      "determine": 7646,
      "inequality": 7647,
      "armenian": 7648,
      "tovah": 7649,
      "fertilizer": 7650,
      "fish": 7651,
      "icon": 7652,
      "tamp": 7653,
      "##nj": 7654,
      "##ww": 7655,
      "##will": 7656,
      "##low": 7657,
      "##kn": 7658,
      "##iar": 7659,
      "##vy": 7660,
      "##arag": 7661,
      "inhum": 7662,
      "##revention": 7663,
      "stupid": 7664,
      "##acher": 7665,
      "convention": 7666,
      "##lying": 7667,
      "##andmeans": 7668,
      "##akis": 7669,
      "shift": 7670,
      "lefts": 7671,
      "overthr": 7672,
      "plot": 7673,
      "drain": 7674,
      "gasoline": 7675,
      "distribut": 7676,
      "moratorium": 7677,
      "urban": 7678,
      "profound": 7679,
      "gopoversight": 7680,
      "agreed": 7681,
      "recovering": 7682,
      "patriots": 7683,
      "recipient": 7684,
      "selected": 7685,
      "machine": 7686,
      "mortg": 7687,
      "fifth": 7688,
      "##connell": 7689,
      "albany": 7690,
      "aapi": 7691,
      "standwithukraine": 7692,
      "52": 7693,
      "56": 7694,
      "eric": 7695,
      "fcc": 7696,
      "fault": 7697,
      "kr": 7698,
      "master": 7699,
      "male": 7700,
      "pure": 7701,
      "tiny": 7702,
      "##has": 7703,
      "##etic": 7704,
      "supporter": 7705,
      "arbitr": 7706,
      "freely": 7707,
      "nationalpolice": 7708,
      "2030": 7709,
      "fighter": 7710,
      "##eller": 7711,
      "warri": 7712,
      "insight": 7713,
      "diab": 7714,
      "morgan": 7715,
      "com202204": 7716,
      "possession": 7717,
      "greenhouse": 7718,
      "positions": 7719,
      "waysandmeans": 7720,
      "fixing": 7721,
      "cattle": 7722,
      "divis": 7723,
      "prosecute": 7724,
      "lockdowns": 7725,
      "deptvetaffairs": 7726,
      "mitigation": 7727,
      "supremac": 7728,
      "##atoday": 7729,
      "apprehended": 7730,
      "##racial": 7731,
      "##womensrights": 7732,
      "pakistan": 7733,
      "biz": 7734,
      "cath": 7735,
      "fier": 7736,
      "od": 7737,
      "sle": 7738,
      "##zz": 7739,
      "##inations": 7740,
      "##ionable": 7741,
      "##stop": 7742,
      "stew": 7743,
      "comhom": 7744,
      "##essions": 7745,
      "amn": 7746,
      "##union": 7747,
      "worsen": 7748,
      "unite": 7749,
      "unanim": 7750,
      "orland": 7751,
      "saves": 7752,
      "grave": 7753,
      "complic": 7754,
      "##load": 7755,
      "invited": 7756,
      "invaded": 7757,
      "discover": 7758,
      "governors": 7759,
      "opinions": 7760,
      "##tees": 7761,
      "investors": 7762,
      "warned": 7763,
      "twice": 7764,
      "climatecrisis": 7765,
      "congressionalappchallenge": 7766,
      "strongest": 7767,
      "defendwomensrights": 7768,
      "pathway": 7769,
      "trusted": 7770,
      "988lifeline": 7771,
      "tennesseans": 7772,
      "brighter": 7773,
      "gaetz": 7774,
      "##help": 7775,
      "##icedept": 7776,
      "fulfill": 7777,
      "monumental": 7778,
      "repstefanik": 7779,
      "granite": 7780,
      "boston": 7781,
      "nfib": 7782,
      "67": 7783,
      "pills": 7784,
      "##mus": 7785,
      "##fre": 7786,
      "thus": 7787,
      "##online": 7788,
      "##oria": 7789,
      "##review": 7790,
      "reaction": 7791,
      "##ersday": 7792,
      "uses": 7793,
      "##ervation": 7794,
      "##eping": 7795,
      "disreg": 7796,
      "expenses": 7797,
      "highway": 7798,
      "##pton": 7799,
      "interracial": 7800,
      "lethal": 7801,
      "##tex": 7802,
      "flu": 7803,
      "persec": 7804,
      "visitors": 7805,
      "##azy": 7806,
      "ny21": 7807,
      "marked": 7808,
      "billionaire": 7809,
      "answering": 7810,
      "grows": 7811,
      "apprent": 7812,
      "oppression": 7813,
      "detained": 7814,
      "##iffs": 7815,
      "repdon": 7816,
      "reinstate": 7817,
      "begging": 7818,
      "totally": 7819,
      "joyous": 7820,
      "relationships": 7821,
      "com20210": 7822,
      "diplomatic": 7823,
      "embrace": 7824,
      "efficiency": 7825,
      "czar": 7826,
      "dinner": 7827,
      "fscdems": 7828,
      "comhomenews": 7829,
      "amnesty": 7830,
      "rif": 7831,
      "tik": 7832,
      "##ele": 7833,
      "##uations": 7834,
      "##kes": 7835,
      "##find": 7836,
      "comt": 7837,
      "enorm": 7838,
      "shocking": 7839,
      "crash": 7840,
      "##apons": 7841,
      "manip": 7842,
      "driver": 7843,
      "cole": 7844,
      "cares": 7845,
      "subpo": 7846,
      "125": 7847,
      "fails": 7848,
      "deadliest": 7849,
      "encoun": 7850,
      "comarticl": 7851,
      "appropriate": 7852,
      "transitory": 7853,
      "exploit": 7854,
      "turkey": 7855,
      "believes": 7856,
      "mlk": 7857,
      "emboldened": 7858,
      "rodneydavis": 7859,
      "ah": 7860,
      "dar": 7861,
      "htm": 7862,
      "jews": 7863,
      "mall": 7864,
      "nap": 7865,
      "row": 7866,
      "torn": 7867,
      "##vo": 7868,
      "##blo": 7869,
      "##math": 7870,
      "##haw": 7871,
      "##ara": 7872,
      "##istle": 7873,
      "adjust": 7874,
      "unw": 7875,
      "##apse": 7876,
      "##newsle": 7877,
      "prefer": 7878,
      "discour": 7879,
      "bipartisaninfrastructure": 7880,
      "surging": 7881,
      "yesterdays": 7882,
      "##arsh": 7883,
      "moments": 7884,
      "##appr": 7885,
      "optim": 7886,
      "musk": 7887,
      "previously": 7888,
      "recommendations": 7889,
      "outdoor": 7890,
      "santa": 7891,
      "compensation": 7892,
      "involvement": 7893,
      "allevi": 7894,
      "invaluable": 7895,
      "##voter": 7896,
      "##ideprevention": 7897,
      "95": 7898,
      "holl": 7899,
      "lady": 7900,
      "##iot": 7901,
      "##fin": 7902,
      "##onna": 7903,
      "##star": 7904,
      "pra": 7905,
      "presence": 7906,
      "##berger": 7907,
      "decline": 7908,
      "acres": 7909,
      "annually": 7910,
      "transgender": 7911,
      "suppression": 7912,
      "remaining": 7913,
      "este": 7914,
      "##white": 7915,
      "compoliticsrep": 7916,
      "reduces": 7917,
      "fleet": 7918,
      "##stein": 7919,
      "abcnews": 7920,
      "upgrade": 7921,
      "##chools": 7922,
      "overwhelmingly": 7923,
      "govcontactnewsle": 7924,
      "sweden": 7925,
      "sudden": 7926,
      "nationalpoliceweek": 7927,
      "eld": 7928,
      "fab": 7929,
      "gi": 7930,
      "mov": 7931,
      "sgt": 7932,
      "##daily": 7933,
      "##jc": 7934,
      "##95": 7935,
      "##educ": 7936,
      "##iggins": 7937,
      "items": 7938,
      "anc": 7939,
      "tries": 7940,
      "##aine": 7941,
      "disabled": 7942,
      "impressive": 7943,
      "brother": 7944,
      "blast": 7945,
      "coordin": 7946,
      "anymore": 7947,
      "underway": 7948,
      "assum": 7949,
      "##weapons": 7950,
      "mentalhealth": 7951,
      "devoted": 7952,
      "sworn": 7953,
      "budgets": 7954,
      "israeli": 7955,
      "##frank": 7956,
      "##itchen": 7957,
      "audits": 7958,
      "rejected": 7959,
      "##arcia": 7960,
      "bodily": 7961,
      "figures": 7962,
      "statedept": 7963,
      "hbcus": 7964,
      "repeatedly": 7965,
      "lincoln": 7966,
      "unconscionable": 7967,
      "9th": 7968,
      "gul": 7969,
      "hind": 7970,
      "nra": 7971,
      "ride": 7972,
      "ritten": 7973,
      "tend": 7974,
      "van": 7975,
      "##rich": 7976,
      "##gar": 7977,
      "##tok": 7978,
      "##bank": 7979,
      "##hur": 7980,
      "##hire": 7981,
      "##ench": 7982,
      "##ndaa": 7983,
      "##rell": 7984,
      "stun": 7985,
      "##empl": 7986,
      "anth": 7987,
      "##agin": 7988,
      "leases": 7989,
      "wash": 7990,
      "contam": 7991,
      "##brown": 7992,
      "dram": 7993,
      "marianas": 7994,
      "creators": 7995,
      "combating": 7996,
      "##american": 7997,
      "harms": 7998,
      "hitting": 7999,
      "michiganders": 8000,
      "ohioans": 8001,
      "springs": 8002,
      "opposite": 8003,
      "incentives": 8004,
      "uncertain": 8005,
      "admitted": 8006,
      "consistently": 8007,
      "solemn": 8008,
      "dozens": 8009,
      "superintendent": 8010,
      "pad": 8011,
      "till": 8012,
      "##ror": 8013,
      "##roll": 8014,
      "##bucks": 8015,
      "##37": 8016,
      "##itr": 8017,
      "##otion": 8018,
      "whistle": 8019,
      "attract": 8020,
      "abbott": 8021,
      "govbill": 8022,
      "##roy": 8023,
      "ukraines": 8024,
      "moon": 8025,
      "returning": 8026,
      "midst": 8027,
      "movements": 8028,
      "13th": 8029,
      "runs": 8030,
      "waysmeans": 8031,
      "batter": 8032,
      "approx": 8033,
      "##obia": 8034,
      "penal": 8035,
      "doubling": 8036,
      "restaurants": 8037,
      "spanish": 8038,
      "communications": 8039,
      "collaboration": 8040,
      "pfas": 8041,
      "steadfast": 8042,
      "joseph": 8043,
      "##luding": 8044,
      "subreddit": 8045,
      "pelosis": 8046,
      "mccarthy": 8047,
      "bipartisaninfrastructurelaw": 8048,
      "nico": 8049,
      "xl": 8050,
      "##point": 8051,
      "##iking": 8052,
      "touring": 8053,
      "##reform": 8054,
      "##urple": 8055,
      "##lege": 8056,
      "comre": 8057,
      "convin": 8058,
      "enable": 8059,
      "shes": 8060,
      "acted": 8061,
      "computer": 8062,
      "##bro": 8063,
      "schumer": 8064,
      "ensl": 8065,
      "bigger": 8066,
      "##deb": 8067,
      "extent": 8068,
      "harvest": 8069,
      "focusing": 8070,
      "obstr": 8071,
      "contributed": 8072,
      "renov": 8073,
      "eligibility": 8074,
      "depends": 8075,
      "repjeff": 8076,
      "urgency": 8077,
      "silent": 8078,
      "observe": 8079,
      "censorship": 8080,
      "com20211": 8081,
      "patriotism": 8082,
      "crowd": 8083,
      "abraham": 8084,
      "govcommitment": 8085,
      "waysmeanscmte": 8086,
      "mik": 8087,
      "si": 8088,
      "tear": 8089,
      "ye": 8090,
      "##ries": 8091,
      "##bj": 8092,
      "##biz": 8093,
      "##hous": 8094,
      "thejust": 8095,
      "##onent": 8096,
      "##omo": 8097,
      "asap": 8098,
      "##agner": 8099,
      "healing": 8100,
      "exists": 8101,
      "peak": 8102,
      "grown": 8103,
      "clay": 8104,
      "plants": 8105,
      "roof": 8106,
      "publicly": 8107,
      "finland": 8108,
      "farming": 8109,
      "##comments": 8110,
      "10th": 8111,
      "challenging": 8112,
      "operate": 8113,
      "salute": 8114,
      "canceled": 8115,
      "distingu": 8116,
      "pursuing": 8117,
      "contractors": 8118,
      "witnessed": 8119,
      "bomb": 8120,
      "disruptions": 8121,
      "livelihoods": 8122,
      "aoc": 8123,
      "gains": 8124,
      "kits": 8125,
      "##aver": 8126,
      "##lishing": 8127,
      "##vant": 8128,
      "##fs": 8129,
      "##oul": 8130,
      "##olid": 8131,
      "##ulus": 8132,
      "enjo": 8133,
      "##ighted": 8134,
      "recall": 8135,
      "grie": 8136,
      "##ova": 8137,
      "approve": 8138,
      "##rogers": 8139,
      "backlog": 8140,
      "electr": 8141,
      "carl": 8142,
      "affordability": 8143,
      "smaller": 8144,
      "##overs": 8145,
      "##box": 8146,
      "founders": 8147,
      "therap": 8148,
      "transparent": 8149,
      "##boro": 8150,
      "variety": 8151,
      "govservicesinter": 8152,
      "engineers": 8153,
      "dispos": 8154,
      "graduate": 8155,
      "catastrophe": 8156,
      "legitimate": 8157,
      "territory": 8158,
      "loopholes": 8159,
      "pittsburgh": 8160,
      "disregard": 8161,
      "aqu": 8162,
      "bor": 8163,
      "dying": 8164,
      "docs": 8165,
      "hay": 8166,
      "##wer": 8167,
      "##ci": 8168,
      "##kem": 8169,
      "##mia": 8170,
      "##fam": 8171,
      "##81": 8172,
      "##oned": 8173,
      "init": 8174,
      "webinar": 8175,
      "##ameral": 8176,
      "##anship": 8177,
      "##andal": 8178,
      "unp": 8179,
      "acqu": 8180,
      "dogs": 8181,
      "impris": 8182,
      "plag": 8183,
      "nationals": 8184,
      "decent": 8185,
      "policing": 8186,
      "edlabor": 8187,
      "##hea": 8188,
      "hopeful": 8189,
      "numerous": 8190,
      "ideals": 8191,
      "ruled": 8192,
      "##lining": 8193,
      "starbucks": 8194,
      "highlighted": 8195,
      "establishment": 8196,
      "golden": 8197,
      "##ophy": 8198,
      "affects": 8199,
      "fascism": 8200,
      "william": 8201,
      "daniel": 8202,
      "impeachment": 8203,
      "##cancerawarenessmonth": 8204,
      "##belie": 8205,
      "repjimbanks": 8206,
      "azerbaijan": 8207,
      "apprentices": 8208,
      "gab": 8209,
      "jon": 8210,
      "ty": 8211,
      "##des": 8212,
      "##vard": 8213,
      "##tions": 8214,
      "##food": 8215,
      "thor": 8216,
      "##itely": 8217,
      "##uro": 8218,
      "##uls": 8219,
      "cham": 8220,
      "atf": 8221,
      "abe": 8222,
      "unbelie": 8223,
      "spin": 8224,
      "##actions": 8225,
      "##awe": 8226,
      "clim": 8227,
      "legally": 8228,
      "flip": 8229,
      "ca21": 8230,
      "illicit": 8231,
      "philly": 8232,
      "##plus": 8233,
      "testament": 8234,
      "##regist": 8235,
      "##register": 8236,
      "civic": 8237,
      "##including": 8238,
      "sends": 8239,
      "videos": 8240,
      "merry": 8241,
      "distin": 8242,
      "spreading": 8243,
      "protesting": 8244,
      "sounds": 8245,
      "maintaining": 8246,
      "bureaucracy": 8247,
      "africa": 8248,
      "destructive": 8249,
      "upgrades": 8250,
      "expedite": 8251,
      "rescind": 8252,
      "abundant": 8253,
      "rumble": 8254,
      "##vaccinated": 8255,
      "inquir": 8256,
      "##journal": 8257,
      "sailors": 8258,
      "cbo": 8259,
      "lic": 8260,
      "##oen": 8261,
      "##win": 8262,
      "##fp": 8263,
      "tox": 8264,
      "##url": 8265,
      "##step": 8266,
      "##idays": 8267,
      "comop": 8268,
      "cong": 8269,
      "congest": 8270,
      "nebr": 8271,
      "sean": 8272,
      "images": 8273,
      "craft": 8274,
      "usatoday": 8275,
      "hashan": 8276,
      "##awa": 8277,
      "everybody": 8278,
      "##aceut": 8279,
      "evans": 8280,
      "blow": 8281,
      "firms": 8282,
      "celebrates": 8283,
      "russians": 8284,
      "elites": 8285,
      "wherever": 8286,
      "##democracy": 8287,
      "hurts": 8288,
      "devices": 8289,
      "responding": 8290,
      "##black": 8291,
      "momentum": 8292,
      "examples": 8293,
      "populations": 8294,
      "ultra": 8295,
      "particular": 8296,
      "woody": 8297,
      "feminism": 8298,
      "behavioral": 8299,
      "rioters": 8300,
      "prolife": 8301,
      "baltim": 8302,
      "##charge": 8303,
      "botched": 8304,
      "caregivers": 8305,
      "emotional": 8306,
      "enormous": 8307,
      "nicole": 8308,
      "thejusticedept": 8309,
      "hashanah": 8310,
      "astr": 8311,
      "bush": 8312,
      "castr": 8313,
      "kitchen": 8314,
      "rog": 8315,
      "sets": 8316,
      "ust": 8317,
      "##night": 8318,
      "##cost": 8319,
      "##arak": 8320,
      "##ilat": 8321,
      "##sters": 8322,
      "##veter": 8323,
      "##ulated": 8324,
      "##active": 8325,
      "##iberal": 8326,
      "struct": 8327,
      "##logs": 8328,
      "##enceday": 8329,
      "prem": 8330,
      "seeks": 8331,
      "retain": 8332,
      "vegas": 8333,
      "showcase": 8334,
      "aircraft": 8335,
      "situations": 8336,
      "##policy": 8337,
      "charles": 8338,
      "filed": 8339,
      "wealthiest": 8340,
      "polluters": 8341,
      "absurd": 8342,
      "mobil": 8343,
      "thompson": 8344,
      "upholding": 8345,
      "counselor": 8346,
      "sbagov": 8347,
      "truckers": 8348,
      "troubling": 8349,
      "utilities": 8350,
      "imperialism": 8351,
      "perpetr": 8352,
      "##children": 8353,
      "tuition": 8354,
      "##academy": 8355,
      "inhumane": 8356,
      "tiktok": 8357,
      "alleviate": 8358,
      "fields": 8359,
      "hits": 8360,
      "##city": 8361,
      "##coin": 8362,
      "##town": 8363,
      "##mag": 8364,
      "##mcm": 8365,
      "##jr": 8366,
      "##jor": 8367,
      "##75": 8368,
      "##90": 8369,
      "reign": 8370,
      "forbes": 8371,
      "stone": 8372,
      "trend": 8373,
      "aging": 8374,
      "ar3": 8375,
      "manager": 8376,
      "drag": 8377,
      "accessibility": 8378,
      "strengthens": 8379,
      "hostage": 8380,
      "posts": 8381,
      "tested": 8382,
      "resulting": 8383,
      "opponents": 8384,
      "steves": 8385,
      "properly": 8386,
      "entered": 8387,
      "##amento": 8388,
      "trees": 8389,
      "speedy": 8390,
      "insurrectionists": 8391,
      "imperialist": 8392,
      "unlike": 8393,
      "confidential": 8394,
      "picture": 8395,
      "worsening": 8396,
      "tactics": 8397,
      "disparities": 8398,
      "nominee": 8399,
      "antonio": 8400,
      "dere": 8401,
      "fd": 8402,
      "gate": 8403,
      "hochul": 8404,
      "jay": 8405,
      "pion": 8406,
      "pace": 8407,
      "##ym": 8408,
      "##bir": 8409,
      "##ede": 8410,
      "##ality": 8411,
      "##this": 8412,
      "commed": 8413,
      "shape": 8414,
      "repjo": 8415,
      "worksh": 8416,
      "joke": 8417,
      "adler": 8418,
      "##ibilities": 8419,
      "sobre": 8420,
      "manner": 8421,
      "##iances": 8422,
      "asset": 8423,
      "soul": 8424,
      "insane": 8425,
      "wellness": 8426,
      "photos": 8427,
      "fairly": 8428,
      "lifting": 8429,
      "traveled": 8430,
      "completed": 8431,
      "auto": 8432,
      "linked": 8433,
      "feeding": 8434,
      "pharmacy": 8435,
      "powmia": 8436,
      "guaranteed": 8437,
      "illnesses": 8438,
      "vermont": 8439,
      "synag": 8440,
      "bicameral": 8441,
      "##aceutical": 8442,
      "candy": 8443,
      "ough": 8444,
      "##vs": 8445,
      "##bury": 8446,
      "##mal": 8447,
      "##xn": 8448,
      "##36": 8449,
      "##isation": 8450,
      "##isons": 8451,
      "##ouse": 8452,
      "##arp": 8453,
      "##arus": 8454,
      "whit": 8455,
      "##ocol": 8456,
      "exempl": 8457,
      "ada": 8458,
      "aged": 8459,
      "griner": 8460,
      "desire": 8461,
      "parish": 8462,
      "##ancip": 8463,
      "importantly": 8464,
      "addresses": 8465,
      "countys": 8466,
      "facult": 8467,
      "avenue": 8468,
      "represented": 8469,
      "headqu": 8470,
      "denying": 8471,
      "petition": 8472,
      "traditions": 8473,
      "hesit": 8474,
      "govservicesmilit": 8475,
      "platforms": 8476,
      "achieving": 8477,
      "houseaggop": 8478,
      "gonzalez": 8479,
      "aggressive": 8480,
      "pilot": 8481,
      "village": 8482,
      "diesel": 8483,
      "massacre": 8484,
      "##oa": 8485,
      "##uer": 8486,
      "##uent": 8487,
      "##gom": 8488,
      "##gall": 8489,
      "##vd": 8490,
      "##87": 8491,
      "##atp": 8492,
      "##ema": 8493,
      "hair": 8494,
      "users": 8495,
      "##ubarak": 8496,
      "outreach": 8497,
      "exports": 8498,
      "attn": 8499,
      "violations": 8500,
      "consult": 8501,
      "deple": 8502,
      "persons": 8503,
      "watched": 8504,
      "##registration": 8505,
      "settle": 8506,
      "filip": 8507,
      "transportdems": 8508,
      "collapse": 8509,
      "begun": 8510,
      "ballots": 8511,
      "pharmaceutical": 8512,
      "chicag": 8513,
      "suspend": 8514,
      "engineering": 8515,
      "samhs": 8516,
      "nuest": 8517,
      "##martyw": 8518,
      "##elected": 8519,
      "assassination": 8520,
      "shocked": 8521,
      "disgraceful": 8522,
      "usfda": 8523,
      "gulf": 8524,
      "enslaved": 8525,
      "##martywalsh": 8526,
      "cul": 8527,
      "henry": 8528,
      "##cam": 8529,
      "##mand": 8530,
      "##34": 8531,
      "##icable": 8532,
      "##report": 8533,
      "stuck": 8534,
      "##igarch": 8535,
      "web": 8536,
      "youll": 8537,
      "##check": 8538,
      "chuck": 8539,
      "asp": 8540,
      "trude": 8541,
      "##ially": 8542,
      "grade": 8543,
      "##ibus": 8544,
      "imposed": 8545,
      "incidents": 8546,
      "gov2022": 8547,
      "expose": 8548,
      "loy": 8549,
      "##encing": 8550,
      "emancip": 8551,
      "capable": 8552,
      "beth": 8553,
      "relent": 8554,
      "##orman": 8555,
      "delta": 8556,
      "irre": 8557,
      "concl": 8558,
      "lessons": 8559,
      "poses": 8560,
      "participation": 8561,
      "misle": 8562,
      "sanctuary": 8563,
      "mcconnell": 8564,
      "okay": 8565,
      "partnerships": 8566,
      "axne": 8567,
      "ethnic": 8568,
      "comstorynewsloc": 8569,
      "ronald": 8570,
      "dismiss": 8571,
      "recru": 8572,
      "permits": 8573,
      "excessive": 8574,
      "overthrow": 8575,
      "fabric": 8576,
      "whistlebl": 8577,
      "fuck": 8578,
      "gent": 8579,
      "jac": 8580,
      "rare": 8581,
      "sid": 8582,
      "uy": 8583,
      "##ker": 8584,
      "##kim": 8585,
      "##kelly": 8586,
      "##rice": 8587,
      "##iop": 8588,
      "##fc": 8589,
      "##alp": 8590,
      "##etes": 8591,
      "stormed": 8592,
      "##sex": 8593,
      "##che": 8594,
      "unit": 8595,
      "##aways": 8596,
      "marth": 8597,
      "indeed": 8598,
      "prev": 8599,
      "discussions": 8600,
      "flown": 8601,
      "orgs": 8602,
      "insult": 8603,
      "caring": 8604,
      "smallbusiness": 8605,
      "preventable": 8606,
      "ly3q": 8607,
      "informative": 8608,
      "compoliticshouse": 8609,
      "responded": 8610,
      "steal": 8611,
      "engaging": 8612,
      "legislators": 8613,
      "explore": 8614,
      "unfold": 8615,
      "modernization": 8616,
      "##sports": 8617,
      "tackling": 8618,
      "undermining": 8619,
      "amounts": 8620,
      "appointments": 8621,
      "undersc": 8622,
      "supremacy": 8623,
      "expertise": 8624,
      "chemicals": 8625,
      "nonprofit": 8626,
      "##miller": 8627,
      "vigilant": 8628,
      "temperatures": 8629,
      "rittenhouse": 8630,
      "stevescal": 8631,
      "ought": 8632,
      "bound": 8633,
      "gary": 8634,
      "jordan": 8635,
      "moves": 8636,
      "pd": 8637,
      "peter": 8638,
      "##pal": 8639,
      "##kippur": 8640,
      "##garcia": 8641,
      "##bn": 8642,
      "##bps": 8643,
      "##inous": 8644,
      "##onies": 8645,
      "##itime": 8646,
      "##ares": 8647,
      "##omas": 8648,
      "whpa": 8649,
      "##traception": 8650,
      "graves": 8651,
      "secmartywalsh": 8652,
      "outd": 8653,
      "##under": 8654,
      "endure": 8655,
      "delayed": 8656,
      "##print": 8657,
      "banking": 8658,
      "suppress": 8659,
      "awa": 8660,
      "equally": 8661,
      "announcing": 8662,
      "stepped": 8663,
      "recoverymonth": 8664,
      "hoy": 8665,
      "boosting": 8666,
      "25th": 8667,
      "00pm": 8668,
      "owens": 8669,
      "integral": 8670,
      "relying": 8671,
      "brutality": 8672,
      "yomkippur": 8673,
      "podcasts": 8674,
      "rapidly": 8675,
      "outdoors": 8676,
      "obviously": 8677,
      "screenings": 8678,
      "mortgage": 8679,
      "faculty": 8680,
      "##gomery": 8681,
      "uygh": 8682,
      "6pm": 8683,
      "bought": 8684,
      "cabin": 8685,
      "du": 8686,
      "jacobs": 8687,
      "les": 8688,
      "mosc": 8689,
      "pull": 8690,
      "sought": 8691,
      "##yers": 8692,
      "##bod": 8693,
      "##xm": 8694,
      "##erated": 8695,
      "##eda": 8696,
      "##alds": 8697,
      "inland": 8698,
      "##omb": 8699,
      "##rey": 8700,
      "##etkem": 8701,
      "##thec": 8702,
      "angry": 8703,
      "repairs": 8704,
      "disorders": 8705,
      "joins": 8706,
      "##oking": 8707,
      "marry": 8708,
      "nationalvoter": 8709,
      "intended": 8710,
      "federally": 8711,
      "cease": 8712,
      "anyway": 8713,
      "warrant": 8714,
      "elite": 8715,
      "ly3r": 8716,
      "15th": 8717,
      "employer": 8718,
      "equipped": 8719,
      "despicable": 8720,
      "largely": 8721,
      "wrongfully": 8722,
      "misgu": 8723,
      "overtime": 8724,
      "ignor": 8725,
      "##center": 8726,
      "accepted": 8727,
      "consideration": 8728,
      "covering": 8729,
      "confirms": 8730,
      "purchases": 8731,
      "luetkem": 8732,
      "##owski": 8733,
      "origins": 8734,
      "contracts": 8735,
      "jimmy": 8736,
      "##peoples": 8737,
      "montgomery": 8738,
      "nominate": 8739,
      "nominations": 8740,
      "##status": 8741,
      "recruitment": 8742,
      "##barrass": 8743,
      "interference": 8744,
      "##republicans": 8745,
      "##oenix": 8746,
      "pione": 8747,
      "stevescalise": 8748,
      "nationalvoterregistration": 8749,
      "luetkemeyer": 8750,
      "5pm": 8751,
      "66": 8752,
      "eager": 8753,
      "hast": 8754,
      "ppp": 8755,
      "##ae": 8756,
      "##mers": 8757,
      "##hc": 8758,
      "##aters": 8759,
      "com20": 8760,
      "french": 8761,
      "repad": 8762,
      "##aint": 8763,
      "usair": 8764,
      "polls": 8765,
      "struck": 8766,
      "invite": 8767,
      "redd": 8768,
      "flaw": 8769,
      "aftermath": 8770,
      "##afford": 8771,
      "##books": 8772,
      "township": 8773,
      "switch": 8774,
      "corporation": 8775,
      "judicial": 8776,
      "regulate": 8777,
      "closures": 8778,
      "carolin": 8779,
      "larry": 8780,
      "owed": 8781,
      "alabam": 8782,
      "census": 8783,
      "surprised": 8784,
      "predict": 8785,
      "bailout": 8786,
      "semiconductors": 8787,
      "wi06": 8788,
      "combusiness2022": 8789,
      "appears": 8790,
      "nicarag": 8791,
      "procedures": 8792,
      "biofuel": 8793,
      "stimulus": 8794,
      "distinguished": 8795,
      "unbelievable": 8796,
      "outdated": 8797,
      "moscow": 8798,
      "misguided": 8799,
      "##peoplesday": 8800,
      "nationalvoterregistrationday": 8801,
      "usairforce": 8802,
      "2pm": 8803,
      "bes": 8804,
      "cards": 8805,
      "lap": 8806,
      "lapt": 8807,
      "vern": 8808,
      "yaho": 8809,
      "##oz": 8810,
      "##cia": 8811,
      "##mary": 8812,
      "##fd": 8813,
      "##inflation": 8814,
      "##oning": 8815,
      "##icron": 8816,
      "reun": 8817,
      "##olic": 8818,
      "##elong": 8819,
      "##uting": 8820,
      "##imize": 8821,
      "sequ": 8822,
      "repcar": 8823,
      "cruz": 8824,
      "govr": 8825,
      "##ieg": 8826,
      "margin": 8827,
      "costly": 8828,
      "##onsors": 8829,
      "##avan": 8830,
      "finished": 8831,
      "consolid": 8832,
      "orgnews": 8833,
      "farmer": 8834,
      "brew": 8835,
      "persist": 8836,
      "phase": 8837,
      "##azar": 8838,
      "systemic": 8839,
      "12th": 8840,
      "greens": 8841,
      "##democr": 8842,
      "##ennial": 8843,
      "serge": 8844,
      "lifelong": 8845,
      "contributing": 8846,
      "painful": 8847,
      "approaching": 8848,
      "lux": 8849,
      "##awarenessday": 8850,
      "semitism": 8851,
      "franklin": 8852,
      "uncover": 8853,
      "negotiating": 8854,
      "halrogers": 8855,
      "smuggling": 8856,
      "oligarch": 8857,
      "omicron": 8858,
      "tuned": 8859,
      "incompetence": 8860,
      "dismantle": 8861,
      "published": 8862,
      "literacy": 8863,
      "entitled": 8864,
      "congestion": 8865,
      "synagogue": 8866,
      "76": 8867,
      "bond": 8868,
      "cu": 8869,
      "j6": 8870,
      "nv": 8871,
      "rig": 8872,
      "sister": 8873,
      "wow": 8874,
      "##eon": 8875,
      "##ya": 8876,
      "##tw": 8877,
      "##higgins": 8878,
      "##xp": 8879,
      "##inel": 8880,
      "##esome": 8881,
      "##eds": 8882,
      "ingr": 8883,
      "comnational": 8884,
      "deals": 8885,
      "asia": 8886,
      "shout": 8887,
      "##enders": 8888,
      "exempt": 8889,
      "exhib": 8890,
      "wast": 8891,
      "adequ": 8892,
      "unelected": 8893,
      "braz": 8894,
      "incarc": 8895,
      "congressgo": 8896,
      "clot": 8897,
      "placed": 8898,
      "strive": 8899,
      "##brief": 8900,
      "removal": 8901,
      "hardest": 8902,
      "buildings": 8903,
      "statue": 8904,
      "awesome": 8905,
      "recognizes": 8906,
      "##democrats": 8907,
      "staying": 8908,
      "eventually": 8909,
      "feels": 8910,
      "handed": 8911,
      "operating": 8912,
      "roevw": 8913,
      "existence": 8914,
      "35month": 8915,
      "pipes": 8916,
      "pipelines": 8917,
      "condemning": 8918,
      "purchasing": 8919,
      "thoughtful": 8920,
      "minorities": 8921,
      "refugee": 8922,
      "comstorynews202": 8923,
      "##espurple": 8924,
      "ftc": 8925,
      "crushed": 8926,
      "##country": 8927,
      "subscribe": 8928,
      "circumst": 8929,
      "html": 8930,
      "govbill11": 8931,
      "approximately": 8932,
      "##veterans": 8933,
      "congressgoespurple": 8934,
      "5m": 8935,
      "98": 8936,
      "cathy": 8937,
      "das": 8938,
      "kag": 8939,
      "lun": 8940,
      "tide": 8941,
      "##non": 8942,
      "##lit": 8943,
      "##4th": 8944,
      "##fil": 8945,
      "##fair": 8946,
      "##inary": 8947,
      "##incrisis": 8948,
      "##infl": 8949,
      "##inzo": 8950,
      "tours": 8951,
      "##icate": 8952,
      "rehab": 8953,
      "##story": 8954,
      "##idemonth": 8955,
      "comhealth": 8956,
      "##think": 8957,
      "##ista": 8958,
      "france": 8959,
      "shore": 8960,
      "heal": 8961,
      "theyll": 8962,
      "embarrass": 8963,
      "flights": 8964,
      "gunviolence": 8965,
      "hardship": 8966,
      "longest": 8967,
      "crew": 8968,
      "illegals": 8969,
      "ly3z": 8970,
      "metro": 8971,
      "afghans": 8972,
      "possibly": 8973,
      "chairs": 8974,
      "flagday": 8975,
      "requirement": 8976,
      "##guardian": 8977,
      "submitted": 8978,
      "protesters": 8979,
      "sotuincrisis": 8980,
      "psych": 8981,
      "counseling": 8982,
      "columbia": 8983,
      "nazis": 8984,
      "adoption": 8985,
      "spotlight": 8986,
      "##holm": 8987,
      "revitalize": 8988,
      "aimed": 8989,
      "applied": 8990,
      "olympics": 8991,
      "permitting": 8992,
      "##jackson": 8993,
      "fortunate": 8994,
      "roevwade": 8995,
      "ave": 8996,
      "bid": 8997,
      "bike": 8998,
      "dangers": 8999,
      "gops": 9000,
      "zip": 9001,
      "##dun": 9002,
      "##district": 9003,
      "##hun": 9004,
      "##face": 9005,
      "theater": 9006,
      "ours": 9007,
      "conven": 9008,
      "channel": 9009,
      "shana": 9010,
      "crown": 9011,
      "##kee": 9012,
      "appall": 9013,
      "endors": 9014,
      "ceos": 9015,
      "##tsd": 9016,
      "belarus": 9017,
      "##web": 9018,
      "cared": 9019,
      "carib": 9020,
      "##access": 9021,
[...]
